{
  "version": "1.0",
  "truncation": null,
  "padding": null,
  "added_tokens": [
    {
      "id": 0,
      "content": "[UNK]",
      "single_word": false,
      "lstrip": false,
      "rstrip": false,
      "normalized": false,
      "special": true
    },
    {
      "id": 1,
      "content": "[PAD]",
      "single_word": false,
      "lstrip": false,
      "rstrip": false,
      "normalized": false,
      "special": true
    },
    {
      "id": 2,
      "content": "[BOS]",
      "single_word": false,
      "lstrip": false,
      "rstrip": false,
      "normalized": false,
      "special": true
    },
    {
      "id": 3,
      "content": "[EOS]",
      "single_word": false,
      "lstrip": false,
      "rstrip": false,
      "normalized": false,
      "special": true
    }
  ],
  "normalizer": null,
  "pre_tokenizer": {
    "type": "ByteLevel",
    "add_prefix_space": false,
    "trim_offsets": true,
    "use_regex": true
  },
  "post_processor": {
    "type": "TemplateProcessing",
    "single": [
      {
        "SpecialToken": {
          "id": "[BOS]",
          "type_id": 0
        }
      },
      {
        "Sequence": {
          "id": "A",
          "type_id": 0
        }
      },
      {
        "SpecialToken": {
          "id": "[EOS]",
          "type_id": 0
        }
      }
    ],
    "pair": [
      {
        "Sequence": {
          "id": "A",
          "type_id": 0
        }
      },
      {
        "Sequence": {
          "id": "B",
          "type_id": 1
        }
      }
    ],
    "special_tokens": {
      "[BOS]": {
        "id": "[BOS]",
        "ids": [
          2
        ],
        "tokens": [
          "[BOS]"
        ]
      },
      "[EOS]": {
        "id": "[EOS]",
        "ids": [
          3
        ],
        "tokens": [
          "[EOS]"
        ]
      }
    }
  },
  "decoder": {
    "type": "ByteLevel",
    "add_prefix_space": true,
    "trim_offsets": true,
    "use_regex": true
  },
  "model": {
    "type": "BPE",
    "dropout": null,
    "unk_token": "[UNK]",
    "continuing_subword_prefix": null,
    "end_of_word_suffix": null,
    "fuse_unk": false,
    "byte_fallback": false,
    "ignore_merges": false,
    "vocab": {
      "[UNK]": 0,
      "[PAD]": 1,
      "[BOS]": 2,
      "[EOS]": 3,
      "!": 4,
      "\"": 5,
      "#": 6,
      "$": 7,
      "%": 8,
      "&": 9,
      "'": 10,
      "(": 11,
      ")": 12,
      "*": 13,
      "+": 14,
      ",": 15,
      "-": 16,
      ".": 17,
      "/": 18,
      "0": 19,
      "1": 20,
      "2": 21,
      "3": 22,
      "4": 23,
      "5": 24,
      "6": 25,
      "7": 26,
      "8": 27,
      "9": 28,
      ":": 29,
      ";": 30,
      "<": 31,
      "=": 32,
      ">": 33,
      "?": 34,
      "@": 35,
      "A": 36,
      "B": 37,
      "C": 38,
      "D": 39,
      "E": 40,
      "F": 41,
      "G": 42,
      "H": 43,
      "I": 44,
      "J": 45,
      "K": 46,
      "L": 47,
      "M": 48,
      "N": 49,
      "O": 50,
      "P": 51,
      "Q": 52,
      "R": 53,
      "S": 54,
      "T": 55,
      "U": 56,
      "V": 57,
      "W": 58,
      "X": 59,
      "Y": 60,
      "Z": 61,
      "[": 62,
      "\\": 63,
      "]": 64,
      "^": 65,
      "_": 66,
      "`": 67,
      "a": 68,
      "b": 69,
      "c": 70,
      "d": 71,
      "e": 72,
      "f": 73,
      "g": 74,
      "h": 75,
      "i": 76,
      "j": 77,
      "k": 78,
      "l": 79,
      "m": 80,
      "n": 81,
      "o": 82,
      "p": 83,
      "q": 84,
      "r": 85,
      "s": 86,
      "t": 87,
      "u": 88,
      "v": 89,
      "w": 90,
      "x": 91,
      "y": 92,
      "z": 93,
      "|": 94,
      "}": 95,
      "~": 96,
      "¡": 97,
      "¢": 98,
      "£": 99,
      "¤": 100,
      "¥": 101,
      "¦": 102,
      "§": 103,
      "¨": 104,
      "©": 105,
      "ª": 106,
      "«": 107,
      "¬": 108,
      "®": 109,
      "¯": 110,
      "°": 111,
      "±": 112,
      "²": 113,
      "³": 114,
      "´": 115,
      "µ": 116,
      "¶": 117,
      "·": 118,
      "¸": 119,
      "¹": 120,
      "º": 121,
      "»": 122,
      "¼": 123,
      "½": 124,
      "¾": 125,
      "¿": 126,
      "Â": 127,
      "Ã": 128,
      "Ä": 129,
      "Å": 130,
      "Æ": 131,
      "Ç": 132,
      "È": 133,
      "É": 134,
      "Ê": 135,
      "Ë": 136,
      "Ì": 137,
      "Í": 138,
      "Î": 139,
      "Ï": 140,
      "Ð": 141,
      "Ñ": 142,
      "Ö": 143,
      "×": 144,
      "Ø": 145,
      "Ù": 146,
      "Ú": 147,
      "Ü": 148,
      "à": 149,
      "á": 150,
      "â": 151,
      "ã": 152,
      "ä": 153,
      "å": 154,
      "æ": 155,
      "ç": 156,
      "è": 157,
      "é": 158,
      "ë": 159,
      "ì": 160,
      "ï": 161,
      "Ġ": 162,
      "Ģ": 163,
      "ģ": 164,
      "Ĥ": 165,
      "ĥ": 166,
      "Ħ": 167,
      "ħ": 168,
      "Ĩ": 169,
      "ĩ": 170,
      "Ī": 171,
      "ī": 172,
      "Ĭ": 173,
      "ĭ": 174,
      "Į": 175,
      "į": 176,
      "İ": 177,
      "ı": 178,
      "Ĳ": 179,
      "ĳ": 180,
      "Ĵ": 181,
      "ĵ": 182,
      "Ķ": 183,
      "ķ": 184,
      "ĸ": 185,
      "Ĺ": 186,
      "ĺ": 187,
      "Ļ": 188,
      "ļ": 189,
      "Ľ": 190,
      "ľ": 191,
      "Ŀ": 192,
      "ŀ": 193,
      "Ł": 194,
      "ł": 195,
      "Ń": 196,
      "Ġt": 197,
      "he": 198,
      "Ġa": 199,
      "in": 200,
      "Ġthe": 201,
      "er": 202,
      "on": 203,
      "Ġ,": 204,
      "re": 205,
      "Ġs": 206,
      "ed": 207,
      "Ġw": 208,
      "Ġo": 209,
      "nd": 210,
      "at": 211,
      "Ġ.": 212,
      "or": 213,
      "it": 214,
      "Ġc": 215,
      "en": 216,
      "Ġf": 217,
      "es": 218,
      "is": 219,
      "ar": 220,
      "Ġof": 221,
      "an": 222,
      "Ġb": 223,
      "Ġin": 224,
      "al": 225,
      "ing": 226,
      "Ġp": 227,
      "as": 228,
      "Ġand": 229,
      "Ġto": 230,
      "ro": 231,
      "ic": 232,
      "Ġm": 233,
      "Ġd": 234,
      "Ġh": 235,
      "ion": 236,
      "ou": 237,
      "le": 238,
      "ĠT": 239,
      "Ġre": 240,
      "il": 241,
      "ent": 242,
      "ĠS": 243,
      "ĠA": 244,
      "Ġth": 245,
      "Ġ\"": 246,
      "Ġ1": 247,
      "st": 248,
      "Ġl": 249,
      "ĠC": 250,
      "el": 251,
      "om": 252,
      "am": 253,
      "Ġe": 254,
      "Ġn": 255,
      "Ġ=": 256,
      "Ġ@": 257,
      "ad": 258,
      "ac": 259,
      "Ġwas": 260,
      "ĠM": 261,
      "ur": 262,
      "ec": 263,
      "Ġon": 264,
      "ly": 265,
      "ĠB": 266,
      "et": 267,
      "Ġ'": 268,
      "ol": 269,
      "Ġg": 270,
      "id": 271,
      "iv": 272,
      "im": 273,
      "Ġfor": 274,
      "ir": 275,
      "ig": 276,
      "-@": 277,
      "Ġ@-@": 278,
      "ĠI": 279,
      "ĠThe": 280,
      "ter": 281,
      "ot": 282,
      "Ġas": 283,
      "us": 284,
      "ow": 285,
      "ĠH": 286,
      "ut": 287,
      "Ġst": 288,
      "ay": 289,
      "Ġ2": 290,
      "ith": 291,
      "ation": 292,
      "ver": 293,
      "Ġbe": 294,
      "ĠP": 295,
      "Ġwith": 296,
      "Ġhe": 297,
      "Ġthat": 298,
      "ĠR": 299,
      "em": 300,
      "th": 301,
      "un": 302,
      "ce": 303,
      "ĠD": 304,
      "Ġis": 305,
      "ul": 306,
      "Ġwh": 307,
      "Ġby": 308,
      "ch": 309,
      "Ġ)": 310,
      "Ġ(": 311,
      "Ġal": 312,
      "Ġcon": 313,
      "ĠF": 314,
      "ĠN": 315,
      "ra": 316,
      "Ġat": 317,
      "os": 318,
      "ĠW": 319,
      "ers": 320,
      "ct": 321,
      "ĠL": 322,
      "ĠG": 323,
      "Ġ19": 324,
      "Ġit": 325,
      "rom": 326,
      "and": 327,
      "Ġan": 328,
      "her": 329,
      "est": 330,
      "ĠJ": 331,
      "um": 332,
      "00": 333,
      "ag": 334,
      "ist": 335,
      "ain": 336,
      "av": 337,
      "ri": 338,
      "od": 339,
      "ĠE": 340,
      "Ġfrom": 341,
      "Ġcom": 342,
      "Ġhis": 343,
      "ĠO": 344,
      "op": 345,
      "res": 346,
      "if": 347,
      "ere": 348,
      "ort": 349,
      "Ġpro": 350,
      "ies": 351,
      "Ġv": 352,
      "ill": 353,
      "Ġde": 354,
      "pp": 355,
      "ore": 356,
      "ld": 357,
      "Ġr": 358,
      "Ġwere": 359,
      "Ġsu": 360,
      "Ġse": 361,
      "ong": 362,
      "igh": 363,
      "ew": 364,
      "ate": 365,
      "all": 366,
      "ak": 367,
      "ard": 368,
      "ich": 369,
      "art": 370,
      "ber": 371,
      "ant": 372,
      "Ġor": 373,
      "ity": 374,
      "ud": 375,
      "oc": 376,
      "ated": 377,
      "ab": 378,
      "Ġch": 379,
      "gh": 380,
      "Ġex": 381,
      "qu": 382,
      "pt": 383,
      "Ġpl": 384,
      "ĠK": 385,
      "rou": 386,
      "ess": 387,
      "ear": 388,
      "ame": 389,
      "ive": 390,
      "ack": 391,
      "Ġâ": 392,
      "Ġsh": 393,
      "ĠU": 394,
      "Ġk": 395,
      "Ġare": 396,
      "ĠIn": 397,
      "ect": 398,
      "Ġhad": 399,
      "ĠâĢ": 400,
      "ian": 401,
      "se": 402,
      "Ġwhich": 403,
      "ĠSt": 404,
      "ast": 405,
      "red": 406,
      "ge": 407,
      "our": 408,
      "ov": 409,
      "ip": 410,
      "ment": 411,
      "Ġsp": 412,
      "Ġnot": 413,
      "Ġy": 414,
      "Ġle": 415,
      "ial": 416,
      "ine": 417,
      "rit": 418,
      "ost": 419,
      "ap": 420,
      "ust": 421,
      "ight": 422,
      "ell": 423,
      "ord": 424,
      "Ġu": 425,
      "oun": 426,
      "ia": 427,
      "ical": 428,
      "ĠCh": 429,
      "Ġ3": 430,
      "ther": 431,
      "ish": 432,
      "ary": 433,
      "ave": 434,
      "og": 435,
      "Ġun": 436,
      "cl": 437,
      "Ġ200": 438,
      "irst": 439,
      "ous": 440,
      "ions": 441,
      "Ġ;": 442,
      "Ġar": 443,
      "Ġint": 444,
      "ru": 445,
      "ide": 446,
      "ĠV": 447,
      "so": 448,
      "Ġcomp": 449,
      "fter": 450,
      "Ġbut": 451,
      "Ġtheir": 452,
      "Ġcont": 453,
      "cc": 454,
      "ure": 455,
      "out": 456,
      "ould": 457,
      "Ġits": 458,
      "Ġwhe": 459,
      "Ġfirst": 460,
      "wo": 461,
      "Ġ20": 462,
      "per": 463,
      "ff": 464,
      "hed": 465,
      "ĠâĢĵ": 466,
      "own": 467,
      "ass": 468,
      "ign": 469,
      "Ġalso": 470,
      "ue": 471,
      "ry": 472,
      "orm": 473,
      "Ġcl": 474,
      "ok": 475,
      "ub": 476,
      "ie": 477,
      "ater": 478,
      "ran": 479,
      "end": 480,
      "ome": 481,
      "Ġres": 482,
      "ire": 483,
      "Ġ:": 484,
      "ond": 485,
      "ork": 486,
      "The": 487,
      "Ġad": 488,
      "Ġab": 489,
      "ĠHe": 490,
      "mer": 491,
      "Ġus": 492,
      "age": 493,
      "Ġher": 494,
      "Ġro": 495,
      "Ġ4": 496,
      "Ġhave": 497,
      "Ġ5": 498,
      "low": 499,
      "Ġone": 500,
      "Ġper": 501,
      "Ġrec": 502,
      "Ġbeen": 503,
      "Ġhas": 504,
      "Ġtwo": 505,
      ".@": 506,
      "Ġ@.@": 507,
      "ime": 508,
      "ree": 509,
      "uring": 510,
      "du": 511,
      "ally": 512,
      "ence": 513,
      "pl": 514,
      "Ġ18": 515,
      "ile": 516,
      "ult": 517,
      "Ġsc": 518,
      "land": 519,
      "ough": 520,
      "ition": 521,
      "iz": 522,
      "Ġag": 523,
      "Ġwho": 524,
      "Ġthis": 525,
      "ĠTh": 526,
      "ach": 527,
      "ations": 528,
      "Ġdis": 529,
      "ric": 530,
      "Ġbec": 531,
      "Ġapp": 532,
      "Ġj": 533,
      "Ġpart": 534,
      "ount": 535,
      "are": 536,
      "Ġdes": 537,
      "clud": 538,
      "act": 539,
      "ely": 540,
      "ade": 541,
      "ĠIt": 542,
      "ory": 543,
      "Ġthey": 544,
      "Ġover": 545,
      "Ġ201": 546,
      "Ġplay": 547,
      "over": 548,
      "ib": 549,
      "Ġman": 550,
      "ound": 551,
      "Ġafter": 552,
      "Ġyear": 553,
      "ens": 554,
      ",@": 555,
      "Ġ@,@": 556,
      "ik": 557,
      "Ġoff": 558,
      "Ġser": 559,
      "ĠAl": 560,
      "Ġatt": 561,
      "Ġim": 562,
      "ction": 563,
      "Ġother": 564,
      "urn": 565,
      "ph": 566,
      "ember": 567,
      "ĠY": 568,
      "ace": 569,
      "ance": 570,
      "Ġinclud": 571,
      "te": 572,
      "ress": 573,
      "ite": 574,
      "Ġout": 575,
      "ice": 576,
      "Ġen": 577,
      "ark": 578,
      "ang": 579,
      "man": 580,
      "ey": 581,
      "round": 582,
      "wn": 583,
      "Ġinto": 584,
      "rough": 585,
      "Ġup": 586,
      "Ġpre": 587,
      "nder": 588,
      "Ġev": 589,
      "ren": 590,
      "Ġtime": 591,
      "int": 592,
      "we": 593,
      "ced": 594,
      "port": 595,
      "Ġcomm": 596,
      "Ġ6": 597,
      "ward": 598,
      "ind": 599,
      "ces": 600,
      "amp": 601,
      "Ġte": 602,
      "ied": 603,
      "Ġwould": 604,
      "vel": 605,
      "ose": 606,
      "Ġwe": 607,
      "Ġmore": 608,
      "ĠUn": 609,
      "tern": 610,
      "ited": 611,
      "Ġ7": 612,
      "Ġall": 613,
      "ents": 614,
      "les": 615,
      "Ġhim": 616,
      "ason": 617,
      "Ġne": 618,
      "able": 619,
      "iss": 620,
      "rib": 621,
      "ors": 622,
      "ings": 623,
      "oy": 624,
      "ased": 625,
      "Ġshe": 626,
      "aw": 627,
      "ates": 628,
      "rop": 629,
      "ood": 630,
      "att": 631,
      "Ġcent": 632,
      "ase": 633,
      "one": 634,
      "Ġwork": 635,
      "Ġpo": 636,
      "ĠAn": 637,
      "ral": 638,
      "ious": 639,
      "old": 640,
      "orth": 641,
      "ix": 642,
      "ict": 643,
      "gan": 644,
      "Ġ9": 645,
      "ild": 646,
      "Ġrem": 647,
      "inal": 648,
      "Ġsec": 649,
      "ail": 650,
      "ep": 651,
      "Ġfe": 652,
      "form": 653,
      "Ġear": 654,
      "Ġduring": 655,
      "ath": 656,
      "Ġbet": 657,
      "Ġthem": 658,
      "ered": 659,
      "Ġwhen": 660,
      "Ġcons": 661,
      "ilm": 662,
      "Ġ8": 663,
      "outh": 664,
      "ved": 665,
      "ron": 666,
      "Ġkn": 667,
      "aus": 668,
      "ss": 669,
      "fer": 670,
      "Ġmost": 671,
      "ubl": 672,
      "Ġdec": 673,
      "ft": 674,
      "ick": 675,
      "Ġonly": 676,
      "Ġsong": 677,
      "way": 678,
      "Ġagain": 679,
      "ake": 680,
      "ollow": 681,
      "Ġnew": 682,
      "ĠOn": 683,
      "ug": 684,
      "ters": 685,
      "oth": 686,
      "ĠMar": 687,
      "reat": 688,
      "ween": 689,
      "ational": 690,
      "Ġ199": 691,
      "ons": 692,
      "ĠSe": 693,
      "hip": 694,
      "Ġthree": 695,
      "ĠCom": 696,
      "Ġtr": 697,
      "Ġunder": 698,
      "Ġgame": 699,
      "ook": 700,
      "ision": 701,
      "ĠAr": 702,
      "Ġabout": 703,
      "ock": 704,
      "Ġfl": 705,
      "Ġrel": 706,
      "ob": 707,
      "olog": 708,
      "Ġcol": 709,
      "Ġ00": 710,
      "als": 711,
      "Ġthan": 712,
      "Ġseason": 713,
      "Ġpos": 714,
      "Ġbetween": 715,
      "ve": 716,
      "Ġfilm": 717,
      "Ġthrough": 718,
      "meric": 719,
      "fore": 720,
      "Ġend": 721,
      "Ġcan": 722,
      "Ġme": 723,
      "Ġnum": 724,
      "ĠAmeric": 725,
      "orn": 726,
      "iew": 727,
      "Ġlater": 728,
      "Ġdef": 729,
      "Ġret": 730,
      "Ġass": 731,
      "ted": 732,
      "Ġwhile": 733,
      "ular": 734,
      "ans": 735,
      "Ġchar": 736,
      "ĠNew": 737,
      "Ġact": 738,
      "ĠEn": 739,
      "Ġsub": 740,
      "hn": 741,
      "Ġver": 742,
      "ts": 743,
      "Ġrecord": 744,
      "ever": 745,
      "Ġprodu": 746,
      "Ġra": 747,
      "Ġpe": 748,
      "Ġpr": 749,
      "Ġreg": 750,
      "Ġwhere": 751,
      "Ġmade": 752,
      "ames": 753,
      "orld": 754,
      "Ġform": 755,
      "ating": 756,
      "Ġbu": 757,
      "Ġac": 758,
      "Ġlar": 759,
      "Ġmov": 760,
      "Ġrele": 761,
      "Ġinter": 762,
      "ener": 763,
      "ury": 764,
      "ished": 765,
      "ines": 766,
      "Ġsome": 767,
      "In": 768,
      "Ġfollow": 769,
      "Ġso": 770,
      "Ġwrit": 771,
      "Ġqu": 772,
      "Ġco": 773,
      "Ġday": 774,
      "Ġspec": 775,
      "Ġinc": 776,
      "Ġfour": 777,
      "Ġam": 778,
      "ived": 779,
      "ual": 780,
      "Ġsecond": 781,
      "Ġacc": 782,
      "hes": 783,
      "ĠLe": 784,
      "Ġ000": 785,
      "ll": 786,
      "Ġused": 787,
      "ins": 788,
      "lect": 789,
      "Ġind": 790,
      "ning": 791,
      "ike": 792,
      "Ġbefore": 793,
      "ank": 794,
      "bum": 795,
      "aid": 796,
      "iel": 797,
      "Ġsupp": 798,
      "ific": 799,
      "Ġsuch": 800,
      "Ġmon": 801,
      "rans": 802,
      "Ġmus": 803,
      "Ġ0": 804,
      "ics": 805,
      "ĠRe": 806,
      "ily": 807,
      "Ġ10": 808,
      "hen": 809,
      "Ġ12": 810,
      "Ġhigh": 811,
      "iver": 812,
      "Ġcall": 813,
      "Ġbeing": 814,
      "Ġthere": 815,
      "any": 816,
      "Ġpubl": 817,
      "aj": 818,
      "ĠBrit": 819,
      "io": 820,
      "ĠThis": 821,
      "Ġent": 822,
      "owever": 823,
      "Ġsur": 824,
      "Ġdo": 825,
      "ars": 826,
      "Ġsy": 827,
      "ĠSh": 828,
      "Ġyears": 829,
      "ĠAt": 830,
      "Ġnumber": 831,
      "Ġfound": 832,
      "Ġep": 833,
      "Ġloc": 834,
      "ĠAust": 835,
      "ĠSc": 836,
      "Ġalbum": 837,
      "Ġtra": 838,
      "Ġsever": 839,
      "velop": 840,
      "Ġagainst": 841,
      "ĠJo": 842,
      "ton": 843,
      "Ġno": 844,
      "ek": 845,
      "Ġset": 846,
      "ĠâĢĶ": 847,
      "Ġinv": 848,
      "ife": 849,
      "ince": 850,
      "ised": 851,
      "other": 852,
      "Ġbl": 853,
      "ject": 854,
      "uc": 855,
      "ier": 856,
      "ement": 857,
      "Ġem": 858,
      "ten": 859,
      "ird": 860,
      "Ġ/": 861,
      "Ġboth": 862,
      "ities": 863,
      "Ġpres": 864,
      "Ġincluding": 865,
      "Ġback": 866,
      "Ġseries": 867,
      "ained": 868,
      "ĠZ": 869,
      "ĠAs": 870,
      "ause": 871,
      "Ġthen": 872,
      "Ġbecame": 873,
      "its": 874,
      "ane": 875,
      "ĠEng": 876,
      "irect": 877,
      "Ġwell": 878,
      "pr": 879,
      "yl": 880,
      "ode": 881,
      "ram": 882,
      "ise": 883,
      "Ġknown": 884,
      "urch": 885,
      "Ġtrans": 886,
      "Ġperform": 887,
      "Ġteam": 888,
      "Ġadd": 889,
      "ident": 890,
      "ale": 891,
      "Ġexp": 892,
      "Ġ16": 893,
      "Ġdep": 894,
      "ĠUnited": 895,
      "ures": 896,
      "ann": 897,
      "az": 898,
      "ert": 899,
      "Ġepis": 900,
      "ined": 901,
      "Ġmain": 902,
      "Ġ198": 903,
      "row": 904,
      "ful": 905,
      "Ġpop": 906,
      "Ġrece": 907,
      "ield": 908,
      "Ġ194": 909,
      "Ġmet": 910,
      "though": 911,
      "overn": 912,
      "ower": 913,
      "Ġsing": 914,
      "son": 915,
      "Ġ15": 916,
      "iet": 917,
      "uch": 918,
      "Ġmany": 919,
      "Ġ11": 920,
      "air": 921,
      "ross": 922,
      "Ġcharac": 923,
      "Ġlong": 924,
      "Ġseveral": 925,
      "Ġdesc": 926,
      "ather": 927,
      "ober": 928,
      "Ġrep": 929,
      "Ġcontin": 930,
      "ĠInd": 931,
      "Ġest": 932,
      "Ġ17": 933,
      "Ġdevelop": 934,
      "Ġop": 935,
      "ool": 936,
      "Ġmill": 937,
      "up": 938,
      "ivers": 939,
      "Ġgo": 940,
      "ute": 941,
      "Ġsm": 942,
      "ĠAustral": 943,
      "ern": 944,
      "elf": 945,
      "Ġorig": 946,
      "ĠAmerican": 947,
      "led": 948,
      "Ġcity": 949,
      "Ġbegan": 950,
      "ative": 951,
      "ared": 952,
      "Ġshow": 953,
      "Ġstud": 954,
      "Ġmin": 955,
      "au": 956,
      "Ġcre": 957,
      "une": 958,
      "emb": 959,
      "der": 960,
      "roup": 961,
      "Ġalong": 962,
      "ah": 963,
      "ĠWar": 964,
      "ven": 965,
      "ĠGer": 966,
      "ĠBritish": 967,
      "Ġpol": 968,
      "Ġhead": 969,
      "Ġcomple": 970,
      "apt": 971,
      "Ġcentury": 972,
      "ued": 973,
      "Ġdid": 974,
      "Ġlead": 975,
      "erm": 976,
      "Ġsign": 977,
      "Ġ197": 978,
      "ĠMay": 979,
      "ired": 980,
      "Ġmil": 981,
      "Ġdirect": 982,
      "ĠShe": 983,
      "Ġship": 984,
      "til": 985,
      "Ġart": 986,
      "ually": 987,
      "Ġcould": 988,
      "Ġ196": 989,
      "ized": 990,
      "Ġext": 991,
      "Ġob": 992,
      "Ġdown": 993,
      "iam": 994,
      "Ġearly": 995,
      "ley": 996,
      "Ġhist": 997,
      "view": 998,
      "Ġnear": 999,
      "Ġcar": 1000,
      "ĠJohn": 1001,
      "Ġbel": 1002,
      "Ġdif": 1003,
      "Ġwar": 1004,
      "Ġoper": 1005,
      "Ġinf": 1006,
      "ient": 1007,
      "Ġbro": 1008,
      "Ġthese": 1009,
      "Ġmat": 1010,
      "els": 1011,
      "Ġcalled": 1012,
      "oot": 1013,
      "Ġair": 1014,
      "Ġimp": 1015,
      "Ġmay": 1016,
      "Ġsaid": 1017,
      "aking": 1018,
      "Ġrun": 1019,
      "Ġcrit": 1020,
      "Ġkm": 1021,
      "ople": 1022,
      "ull": 1023,
      "ĠUS": 1024,
      "ruct": 1025,
      "ccess": 1026,
      "Ġfeat": 1027,
      "Ġepisode": 1028,
      "Ġdesign": 1029,
      "itt": 1030,
      "ured": 1031,
      "Ġland": 1032,
      "Ġinst": 1033,
      "Ġresp": 1034,
      "Ġdisc": 1035,
      "ĠBr": 1036,
      "ments": 1037,
      "ĠCon": 1038,
      "imes": 1039,
      "Ġdist": 1040,
      "ĠIs": 1041,
      "Ġuntil": 1042,
      "Ġreturn": 1043,
      "gest": 1044,
      "Ġdescrib": 1045,
      "yp": 1046,
      "ists": 1047,
      "Ġins": 1048,
      "Ġstart": 1049,
      "Ġattack": 1050,
      "ĠSp": 1051,
      "xt": 1052,
      "ajor": 1053,
      "Ġprev": 1054,
      "ided": 1055,
      "oss": 1056,
      "Ġany": 1057,
      "Ġfin": 1058,
      "ĠAug": 1059,
      "ĠAugust": 1060,
      "ĠCl": 1061,
      "ink": 1062,
      "Ġarea": 1063,
      "amed": 1064,
      "erson": 1065,
      "ains": 1066,
      "ĠGerman": 1067,
      "ĠBl": 1068,
      "ially": 1069,
      "my": 1070,
      "ĠSept": 1071,
      "erv": 1072,
      "Ġprov": 1073,
      "enn": 1074,
      "ible": 1075,
      "ism": 1076,
      "Ġthough": 1077,
      "Ġgener": 1078,
      "ĠSeptember": 1079,
      "Ġconst": 1080,
      "Ġpass": 1081,
      "Ġ13": 1082,
      "ĠWh": 1083,
      "Ġgovern": 1084,
      "ĠCol": 1085,
      "Ġnorth": 1086,
      "ty": 1087,
      "Ġoffic": 1088,
      "ange": 1089,
      "osed": 1090,
      "ĠCar": 1091,
      "Ġsame": 1092,
      "Ġown": 1093,
      "Ġaround": 1094,
      "Ġgroup": 1095,
      "ove": 1096,
      "Ġopen": 1097,
      "Ġbecause": 1098,
      "Ġsupport": 1099,
      "cept": 1100,
      "ĠNorth": 1101,
      "Ġreleased": 1102,
      "Ġmillion": 1103,
      "ĠThey": 1104,
      "ets": 1105,
      "Ġeff": 1106,
      "Ġuse": 1107,
      "Ġlike": 1108,
      "ium": 1109,
      "ĠComm": 1110,
      "Ġsix": 1111,
      "Ġsmall": 1112,
      "Ġocc": 1113,
      "ash": 1114,
      "Ġsuccess": 1115,
      "ĠAfter": 1116,
      "Ġfinal": 1117,
      "Ġcount": 1118,
      "chool": 1119,
      "Ġadv": 1120,
      "Ã©": 1121,
      "Ġbatt": 1122,
      "ĠMan": 1123,
      "Ġappear": 1124,
      "Ġmusic": 1125,
      "aced": 1126,
      "Ġgu": 1127,
      "ĠJu": 1128,
      "Ġsim": 1129,
      "Ġpeople": 1130,
      "ues": 1131,
      "stem": 1132,
      "ĠPl": 1133,
      "Ġfam": 1134,
      "rist": 1135,
      "Ġfollowing": 1136,
      "wards": 1137,
      "ivision": 1138,
      "Ġconc": 1139,
      "Ġdam": 1140,
      "Ġbr": 1141,
      "ouse": 1142,
      "ĠWorld": 1143,
      "Ġmod": 1144,
      "Ġwin": 1145,
      "Ġph": 1146,
      "uth": 1147,
      "ina": 1148,
      "ke": 1149,
      "und": 1150,
      "ilt": 1151,
      "ians": 1152,
      "Ġconsid": 1153,
      "Ġlarge": 1154,
      "Ġeach": 1155,
      "Ġ195": 1156,
      "ĠJune": 1157,
      "eb": 1158,
      "oman": 1159,
      "Ġresult": 1160,
      "ck": 1161,
      "ology": 1162,
      "ution": 1163,
      "ole": 1164,
      "Ġed": 1165,
      "ats": 1166,
      "ropical": 1167,
      "Ġele": 1168,
      "ives": 1169,
      "Ġann": 1170,
      "Ġ191": 1171,
      "Ġfive": 1172,
      "Ġ%": 1173,
      "Ġreport": 1174,
      "Ġpoint": 1175,
      "Ġcontro": 1176,
      "Ġcharacter": 1177,
      "ĠSouth": 1178,
      "ged": 1179,
      "Ġlife": 1180,
      "ĠHowever": 1181,
      "Ġsouth": 1182,
      "Ġstr": 1183,
      "Ġvar": 1184,
      "ĠAll": 1185,
      "raph": 1186,
      "ĠAd": 1187,
      "Ġ14": 1188,
      "ĠJan": 1189,
      "ĠDe": 1190,
      "ery": 1191,
      "Ġgun": 1192,
      "ording": 1193,
      "ales": 1194,
      "Ġever": 1195,
      "ended": 1196,
      "ony": 1197,
      "Ġ193": 1198,
      "ately": 1199,
      "Ġsince": 1200,
      "Ġprom": 1201,
      "ural": 1202,
      "ax": 1203,
      "Ġgr": 1204,
      "ĠOct": 1205,
      "med": 1206,
      "ble": 1207,
      "ically": 1208,
      "ont": 1209,
      "avy": 1210,
      "ĠStates": 1211,
      "ox": 1212,
      "aving": 1213,
      "ling": 1214,
      "Ġweek": 1215,
      "ored": 1216,
      "uary": 1217,
      "Ġstate": 1218,
      "ĠPro": 1219,
      "ĠQ": 1220,
      "ĠGu": 1221,
      "Ġ$": 1222,
      "Ġmajor": 1223,
      "ĠMe": 1224,
      "Ġtook": 1225,
      "ĠOctober": 1226,
      "ified": 1227,
      "ting": 1228,
      "ĠNov": 1229,
      "ection": 1230,
      "ected": 1231,
      "Ġwill": 1232,
      "empt": 1233,
      "ĠFran": 1234,
      "iving": 1235,
      "ĠII": 1236,
      "Ġreceived": 1237,
      "lish": 1238,
      "ball": 1239,
      "Ġpartic": 1240,
      "Ġpublic": 1241,
      "ility": 1242,
      "ĠJuly": 1243,
      "ys": 1244,
      "raft": 1245,
      "Ġclass": 1246,
      "ae": 1247,
      "Ġrest": 1248,
      "ission": 1249,
      "Ġcare": 1250,
      "ague": 1251,
      "ĠEu": 1252,
      "Ġtit": 1253,
      "ĠBe": 1254,
      "ĠFor": 1255,
      "Ġplayed": 1256,
      "Ġline": 1257,
      "Ġhel": 1258,
      "by": 1259,
      "Ġwhat": 1260,
      "Ġbook": 1261,
      "Ġdet": 1262,
      "ĠDec": 1263,
      "ional": 1264,
      "Ġsystem": 1265,
      "ple": 1266,
      "Ġname": 1267,
      "ops": 1268,
      "ants": 1269,
      "Ġlast": 1270,
      "Ġnow": 1271,
      "Ġ25": 1272,
      "Ġprot": 1273,
      "Ġport": 1274,
      "Ġbuild": 1275,
      "ĠJanuary": 1276,
      "Ġ]": 1277,
      "Ġincre": 1278,
      "aim": 1279,
      "esp": 1280,
      "omet": 1281,
      "Ġstorm": 1282,
      "ĠCan": 1283,
      "Ġserv": 1284,
      "Ġref": 1285,
      "ively": 1286,
      "Ġ[": 1287,
      "hel": 1288,
      "Ġ30": 1289,
      "Ġlate": 1290,
      "Ġincluded": 1291,
      "Ġconf": 1292,
      "Ġdue": 1293,
      "ages": 1294,
      "Ġmar": 1295,
      "ĠChrist": 1296,
      "ĠHer": 1297,
      "Ġtri": 1298,
      "Ġdescribed": 1299,
      "ret": 1300,
      "dom": 1301,
      "aur": 1302,
      "Ġwon": 1303,
      "ĠYork": 1304,
      "anc": 1305,
      "ĠPh": 1306,
      "ham": 1307,
      "Ġjust": 1308,
      "Ġmuch": 1309,
      "..": 1310,
      "app": 1311,
      "Ġsingle": 1312,
      "apan": 1313,
      "pril": 1314,
      "sion": 1315,
      "Ġgovernment": 1316,
      "gin": 1317,
      "Ġallow": 1318,
      "ner": 1319,
      "ĠApril": 1320,
      "rote": 1321,
      "ody": 1322,
      "Ġsl": 1323,
      "iod": 1324,
      "ĠKing": 1325,
      "ideo": 1326,
      "Ġworld": 1327,
      "get": 1328,
      "Ġdeath": 1329,
      "oad": 1330,
      "Ġappro": 1331,
      "Ġattempt": 1332,
      "ital": 1333,
      "ĠJapan": 1334,
      "ĠMc": 1335,
      "Ġcommand": 1336,
      "ĠNovember": 1337,
      "Ġkill": 1338,
      "Ġanother": 1339,
      "itions": 1340,
      "Ġleft": 1341,
      "Ġcamp": 1342,
      "Ġmen": 1343,
      "ently": 1344,
      "Ġalthough": 1345,
      "ai": 1346,
      "Ġwithin": 1347,
      "Ġshort": 1348,
      "Ġposs": 1349,
      "ger": 1350,
      "Ġold": 1351,
      "orp": 1352,
      "Ġnamed": 1353,
      "ech": 1354,
      "ris": 1355,
      "Ġwrote": 1356,
      "ene": 1357,
      "Ġeven": 1358,
      "Ġbuilt": 1359,
      "ched": 1360,
      "Ġ...": 1361,
      "urther": 1362,
      "Ġorgan": 1363,
      "rand": 1364,
      "Ġturn": 1365,
      "Ġtop": 1366,
      "omin": 1367,
      "ption": 1368,
      "ract": 1369,
      "Ġbased": 1370,
      "ĠPar": 1371,
      "idge": 1372,
      "Ġtrack": 1373,
      "ĠMus": 1374,
      "ays": 1375,
      "Ġplace": 1376,
      "ĠEurop": 1377,
      "ĠMarch": 1378,
      "itary": 1379,
      "ĠBatt": 1380,
      "Ġprog": 1381,
      "Ġchild": 1382,
      "rench": 1383,
      "Ġpower": 1384,
      "Ġthird": 1385,
      "ĠDecember": 1386,
      "Ġprevious": 1387,
      "ness": 1388,
      "Ġevent": 1389,
      "Ġpar": 1390,
      "Ġstar": 1391,
      "Ġspecies": 1392,
      "ulation": 1393,
      "Ġif": 1394,
      "Ġcap": 1395,
      "Ġestab": 1396,
      "Ġvis": 1397,
      "Ġdiffer": 1398,
      "ĠNational": 1399,
      "ards": 1400,
      "ipp": 1401,
      "Ġschool": 1402,
      "ached": 1403,
      "Ġbelie": 1404,
      "Ġvery": 1405,
      "Ġbre": 1406,
      "ung": 1407,
      "Ġperson": 1408,
      "Ġhome": 1409,
      "ilar": 1410,
      "ĠGe": 1411,
      "Ġdr": 1412,
      "osp": 1413,
      "Ġexpl": 1414,
      "Ġperiod": 1415,
      "ler": 1416,
      "Ġwater": 1417,
      "ances": 1418,
      "Ġlist": 1419,
      "Ġrequ": 1420,
      "Ġgames": 1421,
      "Ġhal": 1422,
      "ms": 1423,
      "Ġtem": 1424,
      "ves": 1425,
      "amb": 1426,
      "Ġhand": 1427,
      "Ġreview": 1428,
      "iversity": 1429,
      "ĠRiver": 1430,
      "Ġ192": 1431,
      "que": 1432,
      "Ġeng": 1433,
      "oint": 1434,
      "eder": 1435,
      "ĠFrench": 1436,
      "Ġbest": 1437,
      "Ġsent": 1438,
      "ĠCity": 1439,
      "aged": 1440,
      "Ġrepl": 1441,
      "Ġthose": 1442,
      "side": 1443,
      "iven": 1444,
      "Ġhum": 1445,
      "ides": 1446,
      "Ġwind": 1447,
      "Ġ100": 1448,
      "Ġmonth": 1449,
      "ese": 1450,
      "ense": 1451,
      "oci": 1452,
      "Ġmed": 1453,
      "ĠEurope": 1454,
      "Ġdest": 1455,
      "ruction": 1456,
      "hest": 1457,
      "ature": 1458,
      "Ġled": 1459,
      "Ġcour": 1460,
      "elt": 1461,
      "Ġbo": 1462,
      "Ġ2010": 1463,
      "ne": 1464,
      "Ġgreat": 1465,
      "Ġcapt": 1466,
      "ences": 1467,
      "aken": 1468,
      "let": 1469,
      "Ġfamily": 1470,
      "aster": 1471,
      "ĠEngland": 1472,
      "ience": 1473,
      "ĠÂ": 1474,
      "Ġbas": 1475,
      "Ġmake": 1476,
      "mp": 1477,
      "Ġvideo": 1478,
      "Ġoriginal": 1479,
      "Ġopp": 1480,
      "ĠAnd": 1481,
      "Ġnext": 1482,
      "Ġcame": 1483,
      "Ġ2008": 1484,
      "inc": 1485,
      "Ġdem": 1486,
      "akes": 1487,
      "Ġtyp": 1488,
      "urric": 1489,
      "ĠHis": 1490,
      "ention": 1491,
      "Ġstill": 1492,
      "Ġterm": 1493,
      "Ġside": 1494,
      "Ġmark": 1495,
      "Ġmoved": 1496,
      "Ġrole": 1497,
      "Ġleg": 1498,
      "Ġcontinued": 1499,
      "ented": 1500,
      "Ġstory": 1501,
      "alk": 1502,
      "Ġfew": 1503,
      "ĠComp": 1504,
      "Ġlocal": 1505,
      "Ġway": 1506,
      "ĠFl": 1507,
      "Ġ2009": 1508,
      "oon": 1509,
      "Ġsold": 1510,
      "Ġcaus": 1511,
      "Ġwest": 1512,
      "Ġhistory": 1513,
      "Ġmid": 1514,
      "ott": 1515,
      "ĠDivision": 1516,
      "gy": 1517,
      "atter": 1518,
      "ior": 1519,
      "Ġview": 1520,
      "line": 1521,
      "bs": 1522,
      "Ġheld": 1523,
      "rew": 1524,
      "uted": 1525,
      "ĠNo": 1526,
      "ĠBro": 1527,
      "Ġforces": 1528,
      "aining": 1529,
      "ival": 1530,
      "embers": 1531,
      "Ġsug": 1532,
      "Ġauth": 1533,
      "Ġformer": 1534,
      "Ġiss": 1535,
      "Ġaddition": 1536,
      "read": 1537,
      "ĠTe": 1538,
      "Ġroad": 1539,
      "uss": 1540,
      "ĠSte": 1541,
      "sh": 1542,
      "riend": 1543,
      "lev": 1544,
      "eng": 1545,
      "lu": 1546,
      "Ġant": 1547,
      "Ġcover": 1548,
      "Ġoften": 1549,
      "Ġeast": 1550,
      "astern": 1551,
      "ograph": 1552,
      "Ġconsidered": 1553,
      "Ġfurther": 1554,
      "ĠOr": 1555,
      "ĠChurch": 1556,
      "Ġcareer": 1557,
      "Ġeffect": 1558,
      "arn": 1559,
      "Ġstand": 1560,
      "ining": 1561,
      "Ġtown": 1562,
      "Ġclaim": 1563,
      "Ġright": 1564,
      "ront": 1565,
      "Ġinit": 1566,
      "Ġdeb": 1567,
      "ampions": 1568,
      "ches": 1569,
      "eter": 1570,
      "Ġtot": 1571,
      "Ġ21": 1572,
      "Ġ2007": 1573,
      "Ġposition": 1574,
      "self": 1575,
      "ories": 1576,
      "ĠEd": 1577,
      "Ġexper": 1578,
      "Ġdel": 1579,
      "ĠWill": 1580,
      "Ġarch": 1581,
      "Ġnort": 1582,
      "ĠBy": 1583,
      "Ġmilitary": 1584,
      "Ġmatch": 1585,
      "par": 1586,
      "enc": 1587,
      "Ġdra": 1588,
      "ĠChar": 1589,
      "Ġhalf": 1590,
      "Ġtropical": 1591,
      "ternational": 1592,
      "Ġsimilar": 1593,
      "Ġhelp": 1594,
      "Ġsuggest": 1595,
      "ead": 1596,
      "roy": 1597,
      "Ġstrong": 1598,
      "Ġ23": 1599,
      "Ġdefe": 1600,
      "ĠPr": 1601,
      "Ġfire": 1602,
      "Ġconv": 1603,
      "ĠWe": 1604,
      "Ġband": 1605,
      "ĠAm": 1606,
      "Ġ24": 1607,
      "ĠState": 1608,
      "ĠThere": 1609,
      "Ġimport": 1610,
      "Ġplayer": 1611,
      "ĠCount": 1612,
      "ister": 1613,
      "Ġrefer": 1614,
      "Ġwithout": 1615,
      "Ġcur": 1616,
      "Ġreal": 1617,
      "Ġpolit": 1618,
      "alion": 1619,
      "Ġdays": 1620,
      "Ġtrad": 1621,
      "urricane": 1622,
      "Ġplan": 1623,
      "Ġcommun": 1624,
      "estern": 1625,
      "Ġmembers": 1626,
      "ĠDuring": 1627,
      "Ġtake": 1628,
      "Ġ2011": 1629,
      "Ġspe": 1630,
      "ebru": 1631,
      "Ġtw": 1632,
      "Ġmy": 1633,
      "ried": 1634,
      "Ġcompany": 1635,
      "Ġclub": 1636,
      "iment": 1637,
      "Ġcommon": 1638,
      "Ġav": 1639,
      "Ġamong": 1640,
      "ĠGener": 1641,
      "Ġlevel": 1642,
      "ensive": 1643,
      "Ġdifferent": 1644,
      "ones": 1645,
      "Ġ22": 1646,
      "Ġyou": 1647,
      "Ġevery": 1648,
      "eal": 1649,
      "Ġpost": 1650,
      "Ġrecorded": 1651,
      "Ġprop": 1652,
      "ots": 1653,
      "Ġel": 1654,
      "itar": 1655,
      "Ġhowever": 1656,
      "ĠFebru": 1657,
      "ĠFebruary": 1658,
      "Ġelect": 1659,
      "Ġbeh": 1660,
      "Ġinvol": 1661,
      "augh": 1662,
      "Ġfore": 1663,
      "iter": 1664,
      "ĠWhen": 1665,
      "Ġrepres": 1666,
      "ĠAb": 1667,
      "Ġ2006": 1668,
      "Ġ2012": 1669,
      "ĠAustralian": 1670,
      "On": 1671,
      "Ġarr": 1672,
      "yn": 1673,
      "Ġpublished": 1674,
      "ĠPort": 1675,
      "Ġlow": 1676,
      "Ġ26": 1677,
      "ize": 1678,
      "ression": 1679,
      "reen": 1680,
      "ĠAf": 1681,
      "yle": 1682,
      "hern": 1683,
      "ccording": 1684,
      "rodu": 1685,
      "ĠRec": 1686,
      "ĠEnglish": 1687,
      "Ġfind": 1688,
      "Ġships": 1689,
      "Ġorder": 1690,
      "lear": 1691,
      "ĠOne": 1692,
      "Ġwritten": 1693,
      "ering": 1694,
      "ittle": 1695,
      "outher": 1696,
      "ĠX": 1697,
      "Ġtro": 1698,
      "atic": 1699,
      "Ġmag": 1700,
      "ĠPer": 1701,
      "Ġvict": 1702,
      "Ġtotal": 1703,
      "be": 1704,
      "ices": 1705,
      "ploy": 1706,
      "Ġfre": 1707,
      "Ġpat": 1708,
      "Ġrelease": 1709,
      "Ġorigin": 1710,
      "outhern": 1711,
      "Ġcr": 1712,
      "Ġfield": 1713,
      "Ġparticular": 1714,
      "ĠEar": 1715,
      "Ġsongs": 1716,
      "isc": 1717,
      "Ġtitle": 1718,
      "Ġbecome": 1719,
      "Ġfoot": 1720,
      "Ġcompet": 1721,
      "Ġer": 1722,
      "ĠAustralia": 1723,
      "Ġreported": 1724,
      "Ġcontrol": 1725,
      "Ġlost": 1726,
      "rick": 1727,
      "ush": 1728,
      "Ġprof": 1729,
      "Ġord": 1730,
      "Ġproject": 1731,
      "reet": 1732,
      "Ġcomb": 1733,
      "Ġtimes": 1734,
      "Ġhaving": 1735,
      "ĠAir": 1736,
      "aces": 1737,
      "sequ": 1738,
      "Ġsurv": 1739,
      "Ġft": 1740,
      "Ġgave": 1741,
      "ĠPark": 1742,
      "ĠAng": 1743,
      "ĠCanad": 1744,
      "Ġter": 1745,
      "aying": 1746,
      "Ġproduced": 1747,
      "Ġstat": 1748,
      "Ġversion": 1749,
      "Ġsk": 1750,
      "Ġcy": 1751,
      "ĠTr": 1752,
      "urs": 1753,
      "ĠGeneral": 1754,
      "esc": 1755,
      "ampionship": 1756,
      "ĠCent": 1757,
      "ĠMich": 1758,
      "rest": 1759,
      "ĠLeague": 1760,
      "Ġ!": 1761,
      "Ġequ": 1762,
      "rent": 1763,
      "sp": 1764,
      "Ġlight": 1765,
      "Ġproduction": 1766,
      "iety": 1767,
      "ĠAss": 1768,
      "Ġ28": 1769,
      "oung": 1770,
      "Ġsignific": 1771,
      "ĠSu": 1772,
      "Ġless": 1773,
      "Ġchang": 1774,
      "ĠUniversity": 1775,
      "Ġauthor": 1776,
      "ĠBar": 1777,
      "iron": 1778,
      "ĠWest": 1779,
      "ream": 1780,
      "ĠHar": 1781,
      "ably": 1782,
      "ours": 1783,
      "ailed": 1784,
      "levision": 1785,
      "ĠMin": 1786,
      "Ġhistor": 1787,
      "ges": 1788,
      "Ġjo": 1789,
      "ĠEl": 1790,
      "Ġnever": 1791,
      "Ġinflu": 1792,
      "ille": 1793,
      "Ġcountry": 1794,
      "ring": 1795,
      "quad": 1796,
      "ald": 1797,
      "Ã¡": 1798,
      "Ġgiven": 1799,
      "Ġarm": 1800,
      "ĠReg": 1801,
      "Ġaff": 1802,
      "Ġsite": 1803,
      "Ġmaking": 1804,
      "Ġforce": 1805,
      "Ġ&": 1806,
      "Ġwant": 1807,
      "used": 1808,
      "Ġinclude": 1809,
      "Ġbar": 1810,
      "ĠRoman": 1811,
      "Ġreturned": 1812,
      "ĠGeor": 1813,
      "echn": 1814,
      "Ġpopular": 1815,
      "aul": 1816,
      "work": 1817,
      "Ġsol": 1818,
      "Ġ27": 1819,
      "Ġground": 1820,
      "ĠAfric": 1821,
      "na": 1822,
      "ration": 1823,
      "ither": 1824,
      "ĠThese": 1825,
      "Ġpress": 1826,
      "Ġeight": 1827,
      "vers": 1828,
      "Ġobs": 1829,
      "oard": 1830,
      "Ġsit": 1831,
      "Ġ50": 1832,
      "Ġ2013": 1833,
      "Ġdestroy": 1834,
      "ades": 1835,
      "ivil": 1836,
      "Ġisland": 1837,
      "antry": 1838,
      "Ġcritic": 1839,
      "ator": 1840,
      "Ġnight": 1841,
      "Ġstated": 1842,
      "ĠRoad": 1843,
      "ization": 1844,
      "Ġacross": 1845,
      "ination": 1846,
      "ask": 1847,
      "Ġstruct": 1848,
      "ĠRich": 1849,
      "me": 1850,
      "Ġreached": 1851,
      "ĠMiss": 1852,
      "Ġchurch": 1853,
      "Ġfar": 1854,
      "Ġdeveloped": 1855,
      "Ġseen": 1856,
      "ffic": 1857,
      "aun": 1858,
      "fic": 1859,
      "ford": 1860,
      "ape": 1861,
      "ĠAmerica": 1862,
      "Ġpopulation": 1863,
      "Ġcult": 1864,
      "aff": 1865,
      "Ġlim": 1866,
      "ising": 1867,
      "Ġpresent": 1868,
      "Ġmiles": 1869,
      "ĠJapanese": 1870,
      "Ġprogram": 1871,
      "Ġannoun": 1872,
      "ĠWilliam": 1873,
      "reek": 1874,
      "ius": 1875,
      "ĠSong": 1876,
      "Ġfact": 1877,
      "omb": 1878,
      "Ġcross": 1879,
      "ument": 1880,
      "Ġsignificant": 1881,
      "Ġshould": 1882,
      "ison": 1883,
      "Ġestabl": 1884,
      "oll": 1885,
      "Ġ29": 1886,
      "Ġearl": 1887,
      "Ġ190": 1888,
      "ĠWith": 1889,
      "Ġusing": 1890,
      "oyal": 1891,
      "Ġchildren": 1892,
      "cess": 1893,
      "nt": 1894,
      "Ġread": 1895,
      "omen": 1896,
      "Ġaway": 1897,
      "iness": 1898,
      "Ġnov": 1899,
      "ground": 1900,
      "ĠLond": 1901,
      "Ġfriend": 1902,
      "Ġrad": 1903,
      "Ġguns": 1904,
      "aign": 1905,
      "ological": 1906,
      "reg": 1907,
      "Ġdiv": 1908,
      "Ġhimself": 1909,
      "Ġhow": 1910,
      "ĠLes": 1911,
      "Ġmanag": 1912,
      "ĠCounty": 1913,
      "craft": 1914,
      "Ġpit": 1915,
      "Ġdevelopment": 1916,
      "Ġestablished": 1917,
      "ĠLondon": 1918,
      "alth": 1919,
      "imately": 1920,
      "ĠJack": 1921,
      "Ġmodern": 1922,
      "Ġbody": 1923,
      "Ġbattle": 1924,
      "Ġmm": 1925,
      "Ġformed": 1926,
      "Ġthought": 1927,
      "eared": 1928,
      "Ġpra": 1929,
      "Ġsound": 1930,
      "Ġperformance": 1931,
      "igade": 1932,
      "isted": 1933,
      "ope": 1934,
      "Ġcast": 1935,
      "Ġhig": 1936,
      "Ġgen": 1937,
      "Ġthroughout": 1938,
      "iers": 1939,
      "Ġwent": 1940,
      "Ġfelt": 1941,
      "arch": 1942,
      "Ġpain": 1943,
      "ĠMount": 1944,
      "Ġareas": 1945,
      "most": 1946,
      "Ġcat": 1947,
      "rie": 1948,
      "Ġkilled": 1949,
      "ero": 1950,
      "Ġwat": 1951,
      "Ġtour": 1952,
      "Ġlaw": 1953,
      "utes": 1954,
      "Ġprim": 1955,
      "Ġsomet": 1956,
      "Ġfight": 1957,
      "Ġgood": 1958,
      "Ġsuccessful": 1959,
      "ĠSim": 1960,
      "Ġintrodu": 1961,
      "ylan": 1962,
      "iec": 1963,
      "Ġdied": 1964,
      "Ġgl": 1965,
      "ements": 1966,
      "Ġseven": 1967,
      "Ġnoted": 1968,
      "ords": 1969,
      "Ġcou": 1970,
      "acy": 1971,
      "ript": 1972,
      "ĠAlthough": 1973,
      "ĠAccording": 1974,
      "ĠHigh": 1975,
      "ĠPol": 1976,
      "ĠDav": 1977,
      "Ġche": 1978,
      "Ġrange": 1979,
      "ublic": 1980,
      "field": 1981,
      "itive": 1982,
      "ĠScient": 1983,
      "Ġdiscover": 1984,
      "Ġfull": 1985,
      "Ġtoo": 1986,
      "Ġste": 1987,
      "ĠBlack": 1988,
      "Ġimportant": 1989,
      "af": 1990,
      "Ġsoc": 1991,
      "Ġmount": 1992,
      "irc": 1993,
      "Ġadm": 1994,
      "Ġlocated": 1995,
      "Ġten": 1996,
      "Ġfront": 1997,
      "ĠNe": 1998,
      "ĠArmy": 1999,
      "Ġblack": 2000,
      "Ġstarted": 2001,
      "Ġput": 2002,
      "ĠCal": 2003,
      "Ġdecl": 2004,
      "Ġbuilding": 2005,
      "ĠOld": 2006,
      "ief": 2007,
      "Ġneed": 2008,
      "Ġchart": 2009,
      "Ġide": 2010,
      "Ġhuman": 2011,
      "ico": 2012,
      "Ġactiv": 2013,
      "Ġperformed": 2014,
      "Ġvarious": 2015,
      "Ġ31": 2016,
      "epend": 2017,
      "ĠCompany": 2018,
      "eth": 2019,
      "ĠIm": 2020,
      "osaur": 2021,
      "Ġremained": 2022,
      "Ġwriting": 2023,
      "ĠPhil": 2024,
      "Ġcas": 2025,
      "Ġlook": 2026,
      "ĠGl": 2027,
      "Ġtelevision": 2028,
      "Ġfeet": 2029,
      "fall": 2030,
      "Ġsee": 2031,
      "Ġtroops": 2032,
      "con": 2033,
      "ways": 2034,
      "Ġofficial": 2035,
      "reland": 2036,
      "Ġfem": 2037,
      "Ġfather": 2038,
      "Ġcaused": 2039,
      "com": 2040,
      "itted": 2041,
      "Ġfun": 2042,
      "Ġnational": 2043,
      "Ġpoem": 2044,
      "Ġwid": 2045,
      "Ġwhite": 2046,
      "ogn": 2047,
      "Ġhouse": 2048,
      "ries": 2049,
      "Äģ": 2050,
      "Ġtechn": 2051,
      "Ġheavy": 2052,
      "Ġinterest": 2053,
      "idence": 2054,
      "Ġconstruction": 2055,
      "Ġage": 2056,
      "Ġred": 2057,
      "Ġsum": 2058,
      "ĠEv": 2059,
      "ara": 2060,
      "Ġget": 2061,
      "ĠDylan": 2062,
      "iting": 2063,
      "Ġplayers": 2064,
      "uck": 2065,
      "gr": 2066,
      "Ġstri": 2067,
      "Ġstyle": 2068,
      "ump": 2069,
      "Ġ2005": 2070,
      "ael": 2071,
      "ĠSec": 2072,
      "ĠIreland": 2073,
      "Ġentire": 2074,
      "Ġsw": 2075,
      "Ġke": 2076,
      "idd": 2077,
      "ino": 2078,
      "Ġevents": 2079,
      "Ġdoes": 2080,
      "Ġsett": 2081,
      "ĠEx": 2082,
      "ĠIsland": 2083,
      "ĠPal": 2084,
      "ourn": 2085,
      "Ġmix": 2086,
      "Ġrev": 2087,
      "Ġbegin": 2088,
      "ĠOl": 2089,
      "Ġvill": 2090,
      "Ġable": 2091,
      "Ġrelig": 2092,
      "quadron": 2093,
      "ĠHist": 2094,
      "ĠJames": 2095,
      "ressed": 2096,
      "Ġcoast": 2097,
      "Ġserved": 2098,
      "Ġpeak": 2099,
      "ĠHa": 2100,
      "asing": 2101,
      "Ġcampaign": 2102,
      "Ġfav": 2103,
      "ĠKe": 2104,
      "Ġpolitical": 2105,
      "Ġlik": 2106,
      "enced": 2107,
      "Ġ40": 2108,
      "Ġregion": 2109,
      "lected": 2110,
      "Ġcreated": 2111,
      "Ġtre": 2112,
      "ened": 2113,
      "mar": 2114,
      "leet": 2115,
      "Ġonce": 2116,
      "Ġgod": 2117,
      "ids": 2118,
      "duct": 2119,
      "Ġfig": 2120,
      "enth": 2121,
      "Ġfollowed": 2122,
      "ĠBattalion": 2123,
      "antic": 2124,
      "Ġ189": 2125,
      "Ġothers": 2126,
      "Ġpromot": 2127,
      "Ġpri": 2128,
      "ĠMon": 2129,
      "Ġagre": 2130,
      "ĠYou": 2131,
      "Ġworks": 2132,
      "less": 2133,
      "ÃŃ": 2134,
      "Ġson": 2135,
      "ster": 2136,
      "ĠRober": 2137,
      "abor": 2138,
      "ĠâĢĻ": 2139,
      "Ġroute": 2140,
      "Ġestim": 2141,
      "Ġcompleted": 2142,
      "ficult": 2143,
      "por": 2144,
      "Ġcond": 2145,
      "elling": 2146,
      "ĠAtl": 2147,
      "ĠCo": 2148,
      "Ġannounced": 2149,
      "here": 2150,
      "ĠCro": 2151,
      "ĠCare": 2152,
      "ĠBut": 2153,
      "Ġ2004": 2154,
      "Ġbecom": 2155,
      "day": 2156,
      "Ġrank": 2157,
      "Ġleast": 2158,
      "Ġmeet": 2159,
      "Ġdifficult": 2160,
      "Ġcoun": 2161,
      "Ġhold": 2162,
      "Ġadded": 2163,
      "Ġball": 2164,
      "ĠMag": 2165,
      "ivid": 2166,
      "rab": 2167,
      "Ġoriginally": 2168,
      "Ġval": 2169,
      "rought": 2170,
      "ample": 2171,
      "ique": 2172,
      "ana": 2173,
      "ĠSw": 2174,
      "ĠSy": 2175,
      "ĠFeder": 2176,
      "play": 2177,
      "ought": 2178,
      "rict": 2179,
      "Ġrelations": 2180,
      "Ġcharacters": 2181,
      "Ġoccur": 2182,
      "Ġfac": 2183,
      "Ġbus": 2184,
      "Ġappeared": 2185,
      "Ġrock": 2186,
      "Ġmonths": 2187,
      "Ġcert": 2188,
      "Ġspecial": 2189,
      "ĠWhile": 2190,
      "oo": 2191,
      "urb": 2192,
      "br": 2193,
      "ki": 2194,
      "Ġident": 2195,
      "Ġsouthern": 2196,
      "rap": 2197,
      "Ġcolle": 2198,
      "Ġround": 2199,
      "Ġpred": 2200,
      "Ġloss": 2201,
      "ament": 2202,
      "ects": 2203,
      "cher": 2204,
      "Ġbase": 2205,
      "Ġlittle": 2206,
      "odes": 2207,
      "Ġcomment": 2208,
      "Ġassoci": 2209,
      "Ġconn": 2210,
      "Ġprocess": 2211,
      "Ġsuper": 2212,
      "ĠRoyal": 2213,
      "Ġbroad": 2214,
      "Ġmi": 2215,
      "Ġinstead": 2216,
      "Ġdamage": 2217,
      "Ġborn": 2218,
      "emy": 2219,
      "ality": 2220,
      "Ġtradition": 2221,
      "Ġaircraft": 2222,
      "cer": 2223,
      "aly": 2224,
      "ett": 2225,
      "Ġ2015": 2226,
      "ying": 2227,
      "pped": 2228,
      "Ġfeatures": 2229,
      "Ġaud": 2230,
      "orse": 2231,
      "unk": 2232,
      "Ġ2003": 2233,
      "Ġdecided": 2234,
      "ĠKingdom": 2235,
      "Ġbehind": 2236,
      "Ġcycl": 2237,
      "oice": 2238,
      "ray": 2239,
      "Ġlack": 2240,
      "Ġenc": 2241,
      "Ġaccom": 2242,
      "ency": 2243,
      "cil": 2244,
      "Ġeastern": 2245,
      "Ġknow": 2246,
      "Ġservice": 2247,
      "Ġredu": 2248,
      "ĠHam": 2249,
      "ĠDu": 2250,
      "Ġlet": 2251,
      "Ġgrow": 2252,
      "Ġnovel": 2253,
      "ĠAct": 2254,
      "Ġnon": 2255,
      "umb": 2256,
      "Ġvol": 2257,
      "Ġsuff": 2258,
      "igned": 2259,
      "Ġhighway": 2260,
      "Ġaward": 2261,
      "ĠRep": 2262,
      "Ġriver": 2263,
      "Ġ188": 2264,
      "Ġcritics": 2265,
      "heast": 2266,
      "Ġcirc": 2267,
      "ĠSom": 2268,
      "oute": 2269,
      "ming": 2270,
      "Ġsaw": 2271,
      "Ġtaken": 2272,
      "Ġoperations": 2273,
      "Ġfif": 2274,
      "Ġmass": 2275,
      "ĠTown": 2276,
      "Ġrecogn": 2277,
      "ĠMex": 2278,
      "Ġwife": 2279,
      "Ġtowards": 2280,
      "ĠMer": 2281,
      "Ġclose": 2282,
      "angu": 2283,
      "Ġfourth": 2284,
      "ault": 2285,
      "ned": 2286,
      "Ġaver": 2287,
      "Ġaction": 2288,
      "gg": 2289,
      "Ġvoc": 2290,
      "ĠScientology": 2291,
      "Ġeither": 2292,
      "Ġanim": 2293,
      "oph": 2294,
      "ĠChampionship": 2295,
      "off": 2296,
      "ĠMor": 2297,
      "ĠMad": 2298,
      "ĠEast": 2299,
      "ĠStreet": 2300,
      "Ġeventually": 2301,
      "Ġtest": 2302,
      "ata": 2303,
      "ators": 2304,
      "ĠSan": 2305,
      "ecut": 2306,
      "illa": 2307,
      "aching": 2308,
      "istic": 2309,
      "Ġclos": 2310,
      "Ġreb": 2311,
      "Ġrepresent": 2312,
      "Ġhurricane": 2313,
      "urg": 2314,
      "olution": 2315,
      "Ġsepar": 2316,
      "Ġscored": 2317,
      "Ġappoint": 2318,
      "Ġsubsequ": 2319,
      "alt": 2320,
      "Ġlive": 2321,
      "ĠBill": 2322,
      "Ġimpro": 2323,
      "ĠFrance": 2324,
      "cast": 2325,
      "Ġz": 2326,
      "ica": 2327,
      "Ġmother": 2328,
      "Ġfort": 2329,
      "ĠPres": 2330,
      "Ġalmost": 2331,
      "Ġproble": 2332,
      "Ġcoll": 2333,
      "Ġbird": 2334,
      "ĠSer": 2335,
      "ĠBra": 2336,
      "Ġindivid": 2337,
      "Ġprofess": 2338,
      "Ġstage": 2339,
      "iff": 2340,
      "Ġ185": 2341,
      "azine": 2342,
      "Ġnorthern": 2343,
      "Ġstars": 2344,
      "ĠRoute": 2345,
      "Ġcommer": 2346,
      "ude": 2347,
      "Ġyoung": 2348,
      "Ġcut": 2349,
      "Ġmiss": 2350,
      "ĠTo": 2351,
      "Ġsex": 2352,
      "Ġce": 2353,
      "Ġfall": 2354,
      "iber": 2355,
      "Ġwall": 2356,
      "Ġask": 2357,
      "aval": 2358,
      "Ġcentral": 2359,
      "ĠIndian": 2360,
      "Ġfeatured": 2361,
      "Ġcor": 2362,
      "Ġlaun": 2363,
      "aper": 2364,
      "ĠHill": 2365,
      "Ġcrew": 2366,
      "ography": 2367,
      "ores": 2368,
      "Ġdou": 2369,
      "ĠCup": 2370,
      "ceed": 2371,
      "ĠMusic": 2372,
      "Ġhon": 2373,
      "orts": 2374,
      "Ġ35": 2375,
      "Ġunits": 2376,
      "medi": 2377,
      "Ġexample": 2378,
      "iol": 2379,
      "Ġhost": 2380,
      "ota": 2381,
      "ĠGrand": 2382,
      "Ġrul": 2383,
      "Ġplaying": 2384,
      "Ġaccept": 2385,
      "Ġmove": 2386,
      "Ġwomen": 2387,
      "ston": 2388,
      "stit": 2389,
      "ully": 2390,
      "Ġarg": 2391,
      "ollowing": 2392,
      "Ġrespons": 2393,
      "Ġgeneral": 2394,
      "Ġbelieved": 2395,
      "west": 2396,
      "ĠEm": 2397,
      "ending": 2398,
      "Ġgoal": 2399,
      "ĠDavid": 2400,
      "Ġiron": 2401,
      "Ġbrought": 2402,
      "ĠRock": 2403,
      "emor": 2404,
      "chie": 2405,
      "ĠInf": 2406,
      "Ġmot": 2407,
      "lement": 2408,
      "ama": 2409,
      "ĠWales": 2410,
      "Ġking": 2411,
      "Ġ500": 2412,
      "Ġcase": 2413,
      "arter": 2414,
      "Ġtoget": 2415,
      "aves": 2416,
      "ĠMcC": 2417,
      "Ġtogether": 2418,
      "men": 2419,
      "uation": 2420,
      "Ġmater": 2421,
      "Ġexc": 2422,
      "ĠInternational": 2423,
      "Ġwinds": 2424,
      "aut": 2425,
      "ĠAg": 2426,
      "cial": 2427,
      "eum": 2428,
      "Ġnuc": 2429,
      "Ġdev": 2430,
      "Ġplaced": 2431,
      "Ġlargest": 2432,
      "Ġdirected": 2433,
      "Ġrelationship": 2434,
      "sc": 2435,
      "Ġmph": 2436,
      "Ġstru": 2437,
      "reng": 2438,
      "Ġleading": 2439,
      "Ġfinished": 2440,
      "iation": 2441,
      "Ġlangu": 2442,
      "Ġintens": 2443,
      "wood": 2444,
      "Ġupon": 2445,
      "Ġinsp": 2446,
      "Ġcourt": 2447,
      "Ġsour": 2448,
      "Ġmember": 2449,
      "ĠJew": 2450,
      "Ġcontract": 2451,
      "Ġ186": 2452,
      "Ġindust": 2453,
      "Ġprovided": 2454,
      "board": 2455,
      "ential": 2456,
      "Ġrather": 2457,
      "ĠBrigade": 2458,
      "Ġweeks": 2459,
      "co": 2460,
      "head": 2461,
      "Ġshot": 2462,
      "Ġflood": 2463,
      "Ġcurrent": 2464,
      "ĠCarey": 2465,
      "ving": 2466,
      "ĠSl": 2467,
      "ĠBo": 2468,
      "Ġopened": 2469,
      "AF": 2470,
      "uel": 2471,
      "oring": 2472,
      "Ġhy": 2473,
      "ĠMed": 2474,
      "ĠNY": 2475,
      "Ġsequ": 2476,
      "Ġemploy": 2477,
      "ĠRobert": 2478,
      "ville": 2479,
      "Ġcreat": 2480,
      "ĠTwo": 2481,
      "artment": 2482,
      "val": 2483,
      "icated": 2484,
      "ishing": 2485,
      "Ġappearance": 2486,
      "Ġcivil": 2487,
      "Ġey": 2488,
      "bert": 2489,
      "ights": 2490,
      "cing": 2491,
      "ĠGod": 2492,
      "ĠGame": 2493,
      "Ġprob": 2494,
      "Ġve": 2495,
      "Ġinvest": 2496,
      "Ġopening": 2497,
      "Ġelements": 2498,
      "go": 2499,
      "ule": 2500,
      "Ġstreng": 2501,
      "ĠDay": 2502,
      "ĠBer": 2503,
      "Ġregular": 2504,
      "ih": 2505,
      "atin": 2506,
      "Ġinform": 2507,
      "asion": 2508,
      "ĠPart": 2509,
      "Ġdirector": 2510,
      "Ġdesigned": 2511,
      "ĠCommand": 2512,
      "Ġpoints": 2513,
      "Ġinvolved": 2514,
      "Ġearlier": 2515,
      "Ġcost": 2516,
      "Ġcell": 2517,
      "Ġhours": 2518,
      "Ġren": 2519,
      "ida": 2520,
      "iding": 2521,
      "ĠPaul": 2522,
      "ĠOther": 2523,
      "Ġyards": 2524,
      "Ġemb": 2525,
      "Ġrespect": 2526,
      "Ġgenerally": 2527,
      "Ġallowed": 2528,
      "hing": 2529,
      "Ġreve": 2530,
      "ĠPe": 2531,
      "iction": 2532,
      "Ġmeas": 2533,
      "Ġfoc": 2534,
      "Ġconduct": 2535,
      "Ġsaying": 2536,
      "Ġoutside": 2537,
      "Ġpossible": 2538,
      "tar": 2539,
      "erous": 2540,
      "ĠHen": 2541,
      "Ġbeg": 2542,
      "ĠNavy": 2543,
      "ĠThom": 2544,
      "Ġmean": 2545,
      "Ġquick": 2546,
      "Ġ-": 2547,
      "Ġbi": 2548,
      "Ġburn": 2549,
      "Ġnar": 2550,
      "ĠViet": 2551,
      "onst": 2552,
      "enes": 2553,
      "ĠSome": 2554,
      "ĠWhite": 2555,
      "Ġengine": 2556,
      "Ġreplaced": 2557,
      "ĠEuropean": 2558,
      "Ġwanted": 2559,
      "cent": 2560,
      "nar": 2561,
      "now": 2562,
      "Ġgra": 2563,
      "conom": 2564,
      "rated": 2565,
      "uk": 2566,
      "Ġmer": 2567,
      "Ġreact": 2568,
      "aps": 2569,
      "ellow": 2570,
      "Ġdesp": 2571,
      "Ġvictory": 2572,
      "Ġwood": 2573,
      "eck": 2574,
      "ĠDep": 2575,
      "Ġhom": 2576,
      "Ġexist": 2577,
      "Ġpreviously": 2578,
      "liam": 2579,
      "Ġfund": 2580,
      "Ġleng": 2581,
      "ĠPre": 2582,
      "Ġworking": 2583,
      "Ġparticularly": 2584,
      "Ġestimated": 2585,
      "ĠSm": 2586,
      "ĠStar": 2587,
      "Ġabove": 2588,
      "Ġ187": 2589,
      "Ġjoined": 2590,
      "ĠGeorge": 2591,
      "After": 2592,
      "etwork": 2593,
      "Ġpract": 2594,
      "Ġmetres": 2595,
      "Ġbusiness": 2596,
      "ee": 2597,
      "ls": 2598,
      "Ġill": 2599,
      "Ġesc": 2600,
      "to": 2601,
      "Ġclear": 2602,
      "ĠRh": 2603,
      "Ġ2014": 2604,
      "inese": 2605,
      "ĠChristian": 2606,
      "ma": 2607,
      "ington": 2608,
      "ĠFirst": 2609,
      "ĠLove": 2610,
      "Ġseem": 2611,
      "Ġ2001": 2612,
      "Ġneg": 2613,
      "Ġtravel": 2614,
      "anned": 2615,
      "for": 2616,
      "ĠPac": 2617,
      "osition": 2618,
      "Ġ2000": 2619,
      "Ġremov": 2620,
      "uter": 2621,
      "Ġachie": 2622,
      "ita": 2623,
      "Ġhit": 2624,
      "ĠBest": 2625,
      "Ġforced": 2626,
      "ĠRed": 2627,
      "ula": 2628,
      "ĠKore": 2629,
      "espite": 2630,
      "Ġdraw": 2631,
      "Ġcop": 2632,
      "ĠHouse": 2633,
      "pper": 2634,
      "ĠChinese": 2635,
      "Ġdiss": 2636,
      "ĠAngel": 2637,
      "liament": 2638,
      "mb": 2639,
      "Ġly": 2640,
      "ĠMy": 2641,
      "Ġworked": 2642,
      "Ġtransport": 2643,
      "Ġ1970": 2644,
      "Ġavail": 2645,
      "Ġpraised": 2646,
      "Ġmach": 2647,
      "urt": 2648,
      "Ġprote": 2649,
      "Ġpers": 2650,
      "Ġpast": 2651,
      "ĠIr": 2652,
      "Ġwithd": 2653,
      "Ġtransfer": 2654,
      "Ġlength": 2655,
      "Ġbur": 2656,
      "Ġinj": 2657,
      "Ġmult": 2658,
      "ĠAc": 2659,
      "ĠMark": 2660,
      "Ġscene": 2661,
      "Ġpoet": 2662,
      "ze": 2663,
      "Ġreason": 2664,
      "ĠCorp": 2665,
      "ecess": 2666,
      "aint": 2667,
      "elled": 2668,
      "ĠZeal": 2669,
      "Ġstudy": 2670,
      "ĠQu": 2671,
      "ĠZealand": 2672,
      "nel": 2673,
      "sel": 2674,
      "Ġslow": 2675,
      "atural": 2676,
      "itz": 2677,
      "Ġfr": 2678,
      "Ġfree": 2679,
      "Ġthreat": 2680,
      "osing": 2681,
      "Ġrain": 2682,
      "Ġmaint": 2683,
      "Ġincreased": 2684,
      "bor": 2685,
      "ps": 2686,
      "ties": 2687,
      "Ġcondom": 2688,
      "Ġresear": 2689,
      "Ġordered": 2690,
      "ste": 2691,
      "ĠBritain": 2692,
      "Ġconstruct": 2693,
      "ĠBattle": 2694,
      "Ġthink": 2695,
      "ĠMac": 2696,
      "Ġstation": 2697,
      "opp": 2698,
      "ĠVal": 2699,
      "Ġmaterial": 2700,
      "ĠMo": 2701,
      "ago": 2702,
      "ĠÂ°": 2703,
      "nes": 2704,
      "Ġ1990": 2705,
      "Ġregard": 2706,
      "Ġobject": 2707,
      "ĠPlay": 2708,
      "ĠCreek": 2709,
      "ĠBay": 2710,
      "ĠLa": 2711,
      "aker": 2712,
      "ĠAtlantic": 2713,
      "ĠMexico": 2714,
      "rd": 2715,
      "acing": 2716,
      "ibility": 2717,
      "Ġevidence": 2718,
      "Ġaccount": 2719,
      "Ġfootball": 2720,
      "Ġtrib": 2721,
      "ĠGreat": 2722,
      "Ġviol": 2723,
      "Ġ45": 2724,
      "Ġremains": 2725,
      "Ġrap": 2726,
      "Ġmanager": 2727,
      "Ġnomin": 2728,
      "irth": 2729,
      "Ġwhom": 2730,
      "anding": 2731,
      "Ġpoor": 2732,
      "Ġsoon": 2733,
      "Ġhous": 2734,
      "ĠKh": 2735,
      "Ġwestern": 2736,
      "ania": 2737,
      "Ġlines": 2738,
      "ĠRuss": 2739,
      "Ġrace": 2740,
      "Ġ60": 2741,
      "Ġcenter": 2742,
      "ification": 2743,
      "ĠPacific": 2744,
      "uz": 2745,
      "Ġface": 2746,
      "ching": 2747,
      "ĠFlor": 2748,
      "ĠHall": 2749,
      "ributed": 2750,
      "ready": 2751,
      "Ġhighest": 2752,
      "ĠRepublic": 2753,
      "ites": 2754,
      "leg": 2755,
      "oms": 2756,
      "ĠGovern": 2757,
      "ĠOper": 2758,
      "Ġarmy": 2759,
      "wh": 2760,
      "Ġtreat": 2761,
      "ĠMary": 2762,
      "ulf": 2763,
      "Ġrail": 2764,
      "ĠMichael": 2765,
      "vest": 2766,
      "aries": 2767,
      "anish": 2768,
      "Ġgre": 2769,
      "Ġchange": 2770,
      "ĠQue": 2771,
      "Ġparticip": 2772,
      "Ġturned": 2773,
      "ĠÂ£": 2774,
      "ship": 2775,
      "Ġdon": 2776,
      "Ġnine": 2777,
      "Ġ2002": 2778,
      "Ġsurf": 2779,
      "Ġfemale": 2780,
      "Ġaverage": 2781,
      "lict": 2782,
      "Ġpen": 2783,
      "ĠWil": 2784,
      "ession": 2785,
      "ordan": 2786,
      "Ġinterview": 2787,
      "Ġarrived": 2788,
      "porary": 2789,
      "ĠSchool": 2790,
      "Ġyard": 2791,
      "Ġsigned": 2792,
      "Ġbreak": 2793,
      "Ġterrit": 2794,
      "BC": 2795,
      "Ġtaking": 2796,
      "Ġpur": 2797,
      "clus": 2798,
      "Ġitself": 2799,
      "Ġsubject": 2800,
      "Ġpriv": 2801,
      "anks": 2802,
      "Ġblock": 2803,
      "Ġclaimed": 2804,
      "ĠPo": 2805,
      "Ġdamaged": 2806,
      "Ġstructure": 2807,
      "ecutive": 2808,
      "Ġavailable": 2809,
      "erved": 2810,
      "Ġlove": 2811,
      "eler": 2812,
      "Ġheav": 2813,
      "ĠDon": 2814,
      "ĠGold": 2815,
      "Ġcontr": 2816,
      "Ġsurround": 2817,
      "ĠHero": 2818,
      "Ġcommercial": 2819,
      "ĠInfantry": 2820,
      "oul": 2821,
      "Ġimmedi": 2822,
      "Ġstudio": 2823,
      "Ġoccup": 2824,
      "Ġdefeated": 2825,
      "hib": 2826,
      "Ġpiec": 2827,
      "ouri": 2828,
      "ĠWal": 2829,
      "ĠOp": 2830,
      "Ġinitially": 2831,
      "Ġcommunity": 2832,
      "ean": 2833,
      "Ġdro": 2834,
      "Ġhard": 2835,
      "abit": 2836,
      "ĠUnion": 2837,
      "Ġtraining": 2838,
      "Ġbrother": 2839,
      "ĠSuper": 2840,
      "ĠRegiment": 2841,
      "band": 2842,
      "ky": 2843,
      "Ġsection": 2844,
      "arily": 2845,
      "Ġbill": 2846,
      "vert": 2847,
      "Ġdespite": 2848,
      "chest": 2849,
      "Ġcal": 2850,
      "ĠSch": 2851,
      "Ġnames": 2852,
      "ĠHol": 2853,
      "ulated": 2854,
      "ĠGr": 2855,
      "Ġdisp": 2856,
      "Ġdepression": 2857,
      "gypt": 2858,
      "ĠRichard": 2859,
      "As": 2860,
      "ximately": 2861,
      "Ġgold": 2862,
      "rian": 2863,
      "Ġ36": 2864,
      "ĠLesnar": 2865,
      "ĠÃ": 2866,
      "Ġtru": 2867,
      "ĠAward": 2868,
      "ĠMet": 2869,
      "Ġpassed": 2870,
      "Ġvillage": 2871,
      "lor": 2872,
      "Ġesp": 2873,
      "Ġinternational": 2874,
      "Ġtold": 2875,
      "Ġeconom": 2876,
      "Ġwhose": 2877,
      "ĠGal": 2878,
      "Ġexcept": 2879,
      "ference": 2880,
      "Ġquarter": 2881,
      "ĠCanada": 2882,
      "Ġhar": 2883,
      "Ġalready": 2884,
      "ateg": 2885,
      "Ġincreasing": 2886,
      "oor": 2887,
      "Ġcru": 2888,
      "ila": 2889,
      "Ġlatter": 2890,
      "ĠMost": 2891,
      "Ġrequired": 2892,
      "ĠPresident": 2893,
      "Ġprobably": 2894,
      "Ġwide": 2895,
      "arters": 2896,
      "ases": 2897,
      "Ġparts": 2898,
      "Ġ1960": 2899,
      "Ġappointed": 2900,
      "ĠThomas": 2901,
      "Ġstates": 2902,
      "ription": 2903,
      "Ġkey": 2904,
      "Ġ183": 2905,
      "ĠYear": 2906,
      "Ġ75": 2907,
      "Ġestablish": 2908,
      "stein": 2909,
      "ari": 2910,
      "ĠTor": 2911,
      "urity": 2912,
      "ĠDr": 2913,
      "rag": 2914,
      "ume": 2915,
      "ĠEgypt": 2916,
      "Ġ38": 2917,
      "Ġdebut": 2918,
      "Ġreligious": 2919,
      "ĠVietn": 2920,
      "ĠFlorida": 2921,
      "St": 2922,
      "da": 2923,
      "down": 2924,
      "inist": 2925,
      "oration": 2926,
      "Ġfly": 2927,
      "ĠTimes": 2928,
      "ĠLater": 2929,
      "Ġproper": 2930,
      "Ġpolice": 2931,
      "Ġcomplet": 2932,
      "ĠCarol": 2933,
      "Ġgrad": 2934,
      "Ġsoldiers": 2935,
      "hem": 2936,
      "Ġcapital": 2937,
      "ĠMissouri": 2938,
      "AS": 2939,
      "ney": 2940,
      "Ġliter": 2941,
      "Ġforward": 2942,
      "thlet": 2943,
      "ranch": 2944,
      "Ġbetter": 2945,
      "Ġassist": 2946,
      "oid": 2947,
      "áĥ": 2948,
      "Ġmust": 2949,
      "Ġcolon": 2950,
      "ĠEarly": 2951,
      "Ġden": 2952,
      "Ġdate": 2953,
      "ilities": 2954,
      "ĠBel": 2955,
      "Ġcome": 2956,
      "Ġdead": 2957,
      "Ġabs": 2958,
      "Ġremaining": 2959,
      "ĠScott": 2960,
      "Ġsuggested": 2961,
      "Ġbeginning": 2962,
      "Ġsize": 2963,
      "atory": 2964,
      "Ġgive": 2965,
      "Ġanc": 2966,
      "Ġenough": 2967,
      "Ġgoing": 2968,
      "Ġwinning": 2969,
      "Ġanti": 2970,
      "gu": 2971,
      "Ġap": 2972,
      "Ġpot": 2973,
      "ĠTom": 2974,
      "ĠMa": 2975,
      "aby": 2976,
      "ability": 2977,
      "Ġdecision": 2978,
      "Ġended": 2979,
      "hens": 2980,
      "Ġdeterm": 2981,
      "itor": 2982,
      "Ġfailed": 2983,
      "ĠApp": 2984,
      "Ġwriter": 2985,
      "Ġaccording": 2986,
      "Ġindepend": 2987,
      "Ġnearly": 2988,
      "ĠOliv": 2989,
      "olic": 2990,
      "ĠVir": 2991,
      "rang": 2992,
      "ĠHenry": 2993,
      "den": 2994,
      "atives": 2995,
      "Ġtouch": 2996,
      "gl": 2997,
      "Ġsect": 2998,
      "ecially": 2999,
      "Ġgoals": 3000,
      "Ġshows": 3001,
      "Ġcomplete": 3002,
      "Ġphys": 3003,
      "ĠAfrica": 3004,
      "Ġlanguage": 3005,
      "ks": 3006,
      "rack": 3007,
      "Ġaut": 3008,
      "Ġmight": 3009,
      "ĠSquadron": 3010,
      "Ġlower": 3011,
      "Ġscore": 3012,
      "ĠIndia": 3013,
      "Ġintroduced": 3014,
      "Ã³": 3015,
      "onse": 3016,
      "Ġfut": 3017,
      "ĠTra": 3018,
      "ĠCong": 3019,
      "ĠJordan": 3020,
      "uments": 3021,
      "ĠThat": 3022,
      "Ġremain": 3023,
      "Ġfeel": 3024,
      "ĠAssoci": 3025,
      "of": 3026,
      "Ġtow": 3027,
      "ĠSun": 3028,
      "ĠMal": 3029,
      "illery": 3030,
      "ĠArt": 3031,
      "Ġrecording": 3032,
      "Ġdepict": 3033,
      "Ġrunning": 3034,
      "Ġcaptured": 3035,
      "tt": 3036,
      "ĠCamp": 3037,
      "Ġspent": 3038,
      "Ġleague": 3039,
      "ronic": 3040,
      "Ġminor": 3041,
      "Ġeduc": 3042,
      "aughter": 3043,
      "Ġprior": 3044,
      "Ġespecially": 3045,
      "iest": 3046,
      "ĠBus": 3047,
      "idents": 3048,
      "ests": 3049,
      "ĠVict": 3050,
      "Ġ80": 3051,
      "Ġsupported": 3052,
      "Ġapproximately": 3053,
      "Ġdestroyed": 3054,
      "Ġlimited": 3055,
      "ga": 3056,
      "Ġ?": 3057,
      "aring": 3058,
      "ĠFort": 3059,
      "Ġchap": 3060,
      "Ġintended": 3061,
      "Ġgroups": 3062,
      "Ġissue": 3063,
      "ĠHistory": 3064,
      "ĠCard": 3065,
      "ĠMont": 3066,
      "ĠFe": 3067,
      "Ġ1980": 3068,
      "ĠSpanish": 3069,
      "ĠBrown": 3070,
      "Ġmur": 3071,
      "Ġdivision": 3072,
      "Ġnetwork": 3073,
      "ĠPet": 3074,
      "odies": 3075,
      "Ġdeal": 3076,
      "quare": 3077,
      "Ġimm": 3078,
      "ĠGermany": 3079,
      "Ġreviews": 3080,
      "Ġdiscovered": 3081,
      "ĠFederer": 3082,
      "ha": 3083,
      "Ġfleet": 3084,
      "raw": 3085,
      "Ġkil": 3086,
      "rying": 3087,
      "Ġresponse": 3088,
      "ĠCharles": 3089,
      "Ġreveal": 3090,
      "Ġsat": 3091,
      "Ġdoc": 3092,
      "ĠTech": 3093,
      "ĠAwards": 3094,
      "omm": 3095,
      "Ġstaff": 3096,
      "ĠPat": 3097,
      "Ġsometimes": 3098,
      "ĠIrish": 3099,
      "inct": 3100,
      "reak": 3101,
      "ĠSing": 3102,
      "ĠMil": 3103,
      "ĠFilm": 3104,
      "ĠUnder": 3105,
      "Ġscreen": 3106,
      "Ġoffice": 3107,
      "inent": 3108,
      "Ġfood": 3109,
      "Ġ184": 3110,
      "Ġpositive": 3111,
      "Ġlarger": 3112,
      "Ġruns": 3113,
      "Ġarchae": 3114,
      "Ġchanges": 3115,
      "rief": 3116,
      "Ġcertain": 3117,
      "Ġinn": 3118,
      "ĠPeter": 3119,
      "orning": 3120,
      "Ġadditional": 3121,
      "Ġmagazine": 3122,
      "ĠCanadian": 3123,
      "Ġagreed": 3124,
      "fect": 3125,
      "Ġri": 3126,
      "Ġmale": 3127,
      "Ġhapp": 3128,
      "ĠCoun": 3129,
      "order": 3130,
      "Ġmixed": 3131,
      "back": 3132,
      "uing": 3133,
      "Ġsch": 3134,
      "ĠTem": 3135,
      "ĠCour": 3136,
      "ĠHel": 3137,
      "ishop": 3138,
      "ples": 3139,
      "Ġscript": 3140,
      "Ġincludes": 3141,
      "Ġprovide": 3142,
      "ĠColle": 3143,
      "Ġfighting": 3144,
      "anies": 3145,
      "ĠWestern": 3146,
      "Ġexam": 3147,
      "quarters": 3148,
      "Ġjourn": 3149,
      "aren": 3150,
      "Ġsocial": 3151,
      "Ġsem": 3152,
      "Ġfail": 3153,
      "ication": 3154,
      "Ġdomin": 3155,
      "ĠTur": 3156,
      "ĠNort": 3157,
      "Ġmostly": 3158,
      "ires": 3159,
      "lymp": 3160,
      "ĠDespite": 3161,
      "ĠNero": 3162,
      "Ġfeature": 3163,
      "edy": 3164,
      "ros": 3165,
      "lex": 3166,
      "ĠSoc": 3167,
      "ads": 3168,
      "Ġdeep": 3169,
      "hedral": 3170,
      "Ġusually": 3171,
      "Ġpositions": 3172,
      "anna": 3173,
      "Ġforest": 3174,
      "Ġfrequ": 3175,
      "Ġpressure": 3176,
      "oned": 3177,
      "ĠCr": 3178,
      "ĠFrom": 3179,
      "ĠOlymp": 3180,
      "ĠStud": 3181,
      "Ġlyric": 3182,
      "Al": 3183,
      "Ġpair": 3184,
      "Ġmention": 3185,
      "ils": 3186,
      "ĠMos": 3187,
      "irt": 3188,
      "change": 3189,
      "Ġcompl": 3190,
      "Ġamount": 3191,
      "ĠIII": 3192,
      "Ġtype": 3193,
      "iser": 3194,
      "Ġbomb": 3195,
      "igan": 3196,
      "ĠHot": 3197,
      "oke": 3198,
      "Ġadop": 3199,
      "Ġminutes": 3200,
      "Ġguitar": 3201,
      "fact": 3202,
      "Ġens": 3203,
      "atively": 3204,
      "iring": 3205,
      "Ġ1999": 3206,
      "Ġcarried": 3207,
      "Ġradio": 3208,
      "osaurus": 3209,
      "Ġbecoming": 3210,
      "Ġfuture": 3211,
      "de": 3212,
      "Ġsil": 3213,
      "umn": 3214,
      "Ġshown": 3215,
      "Ġunc": 3216,
      "teen": 3217,
      "Ġ70": 3218,
      "Ġsmaller": 3219,
      "Ġdefeat": 3220,
      "Ġsubsequently": 3221,
      "isions": 3222,
      "ĠUK": 3223,
      "ĠChina": 3224,
      "ospital": 3225,
      "bers": 3226,
      "under": 3227,
      "Ġword": 3228,
      "stant": 3229,
      "ote": 3230,
      "Ġconclud": 3231,
      "ills": 3232,
      "Ġcontem": 3233,
      "Ġpresident": 3234,
      "Ġfavor": 3235,
      "Ġlikely": 3236,
      "mond": 3237,
      "asy": 3238,
      "enty": 3239,
      "ĠServ": 3240,
      "ĠBur": 3241,
      "ĠJin": 3242,
      "Ġadapt": 3243,
      "Ġteams": 3244,
      "ĠFrank": 3245,
      "Ġcounter": 3246,
      "itte": 3247,
      "ĠTV": 3248,
      "ĠTer": 3249,
      "ady": 3250,
      "Ġpercent": 3251,
      "oys": 3252,
      "Ġreferred": 3253,
      "ĠJewish": 3254,
      "Ġquickly": 3255,
      "ror": 3256,
      "uals": 3257,
      "Ġtons": 3258,
      "Ġwoman": 3259,
      "ĠMart": 3260,
      "Ġstay": 3261,
      "ĠInter": 3262,
      "Ġund": 3263,
      "Ġquest": 3264,
      "Ġentered": 3265,
      "Ġlocation": 3266,
      "Ġproblems": 3267,
      "onna": 3268,
      "Ġwound": 3269,
      "oud": 3270,
      "ĠCath": 3271,
      "aded": 3272,
      "cean": 3273,
      "ĠLaw": 3274,
      "Ġ32": 3275,
      "Ġuns": 3276,
      "peror": 3277,
      "Ġ1995": 3278,
      "rison": 3279,
      "ios": 3280,
      "Ġinters": 3281,
      "Ġder": 3282,
      "Ġlo": 3283,
      "Ġnotes": 3284,
      "Ġtemper": 3285,
      "Ġranked": 3286,
      "Ġfifth": 3287,
      "ĠAssociation": 3288,
      "ĠVictor": 3289,
      "ny": 3290,
      "Ġbirth": 3291,
      "achel": 3292,
      "imum": 3293,
      "unt": 3294,
      "ands": 3295,
      "ĠVer": 3296,
      "Ġ400": 3297,
      "Ġappl": 3298,
      "ĠBillboard": 3299,
      "Ġprofessional": 3300,
      "NA": 3301,
      "gen": 3302,
      "gely": 3303,
      "Ġflow": 3304,
      "Ġbrief": 3305,
      "ĠBack": 3306,
      "Ġstra": 3307,
      "ĠPenn": 3308,
      "rael": 3309,
      "ĠOff": 3310,
      "Ġrelated": 3311,
      "Ġkeep": 3312,
      "Ġsurface": 3313,
      "dle": 3314,
      "Ġdi": 3315,
      "imate": 3316,
      "ĠWhe": 3317,
      "iforn": 3318,
      "Ġsea": 3319,
      "Ġleaving": 3320,
      "Ġunit": 3321,
      "Ġmoving": 3322,
      "Ġindic": 3323,
      "Ġconcern": 3324,
      "ĠForce": 3325,
      "Ġmedia": 3326,
      "ĠOldham": 3327,
      "rat": 3328,
      "well": 3329,
      "Ġself": 3330,
      "usp": 3331,
      "Ġ90": 3332,
      "Ġamb": 3333,
      "Ġofficers": 3334,
      "Ġmajority": 3335,
      "Ġconstructed": 3336,
      "hy": 3337,
      "Ġthick": 3338,
      "Ġ33": 3339,
      "Ġenv": 3340,
      "Ġconsist": 3341,
      "Ġstudents": 3342,
      "Ġminute": 3343,
      "Ġcomplex": 3344,
      "Ġconcert": 3345,
      "Ġvisit": 3346,
      "Ġidea": 3347,
      "Ġsuffered": 3348,
      "Ġlaunched": 3349,
      "gar": 3350,
      "anced": 3351,
      "Ġattacked": 3352,
      "Ġrapid": 3353,
      "During": 3354,
      "Ġshoot": 3355,
      "ĠVar": 3356,
      "Ġthemsel": 3357,
      "Ġassigned": 3358,
      "Ġ1950": 3359,
      "Ġprimary": 3360,
      "ĠSecond": 3361,
      "Ġthemselves": 3362,
      "ani": 3363,
      "rown": 3364,
      "Ġmakes": 3365,
      "ĠBen": 3366,
      "Ġalways": 3367,
      "ĠItal": 3368,
      "Ġoverall": 3369,
      "Ġvers": 3370,
      "Ġlargely": 3371,
      "Ġartillery": 3372,
      "Ġdiscuss": 3373,
      "Ġeffects": 3374,
      "ĠCaliforn": 3375,
      "ners": 3376,
      "Ġult": 3377,
      "era": 3378,
      "ĠRes": 3379,
      "ĠRad": 3380,
      "ĠFollowing": 3381,
      "Ġspeed": 3382,
      "Ġsummer": 3383,
      "ĠOlivier": 3384,
      "ĠTour": 3385,
      "Ġlearn": 3386,
      "Ġfilms": 3387,
      "Ġcreate": 3388,
      "Ġoccurred": 3389,
      "Ġcele": 3390,
      "ĠCouncil": 3391,
      "Ġcm": 3392,
      "Ġrein": 3393,
      "Ġlink": 3394,
      "ĠHurricane": 3395,
      "ĠLight": 3396,
      "ĠLatin": 3397,
      "ĠEver": 3398,
      "Ġran": 3399,
      "Ġcontains": 3400,
      "Ġcann": 3401,
      "ĠIsrael": 3402,
      "Ġconsider": 3403,
      "Ġlyrics": 3404,
      "hou": 3405,
      "het": 3406,
      "Ġcer": 3407,
      "alled": 3408,
      "Ġaband": 3409,
      "arent": 3410,
      "Ġattract": 3411,
      "Ġprem": 3412,
      "Ġ1998": 3413,
      "Ġproduct": 3414,
      "Ġlonger": 3415,
      "Ġcritical": 3416,
      "Ġattacks": 3417,
      "vens": 3418,
      "Ġcred": 3419,
      "Ġdark": 3420,
      "Ġemer": 3421,
      "aches": 3422,
      "thing": 3423,
      "ulpt": 3424,
      "Ġ300": 3425,
      "Ġtraffic": 3426,
      "ĠCentral": 3427,
      "Ġinvestig": 3428,
      "Ġfans": 3429,
      "ĠOs": 3430,
      "Ġimage": 3431,
      "Ġmeth": 3432,
      "ĠGuitar": 3433,
      "Ġslight": 3434,
      "Ġbroadcast": 3435,
      "ex": 3436,
      "Ġlived": 3437,
      "Ġdeg": 3438,
      "ĠStorm": 3439,
      "lands": 3440,
      "Ġmovement": 3441,
      "Ġmusical": 3442,
      "Ġ1940": 3443,
      "Ġappears": 3444,
      "Ġcontroll": 3445,
      "Ġincrease": 3446,
      "Ġstatus": 3447,
      "Ġkilomet": 3448,
      "Ġschol": 3449,
      "RA": 3450,
      "ises": 3451,
      "ĠSam": 3452,
      "ĠSur": 3453,
      "Ġlab": 3454,
      "ĠPri": 3455,
      "ĠJer": 3456,
      "arts": 3457,
      "Ġjob": 3458,
      "Ġ2016": 3459,
      "Ġcommission": 3460,
      "undred": 3461,
      "Ġconflict": 3462,
      "Ġexperience": 3463,
      "Ġproposed": 3464,
      "Ġcasual": 3465,
      "Ġasked": 3466,
      "ĠCalifornia": 3467,
      "lin": 3468,
      "Ġpurch": 3469,
      "Ġdoll": 3470,
      "ĠMr": 3471,
      "ĠHow": 3472,
      "Ġscenes": 3473,
      "Ġsculpt": 3474,
      "Ġaccess": 3475,
      "Ġmoney": 3476,
      "itting": 3477,
      "Th": 3478,
      "Ġtar": 3479,
      "ĠTre": 3480,
      "imb": 3481,
      "ĠHaw": 3482,
      "Ġvoice": 3483,
      "Ġjud": 3484,
      "ĠAnt": 3485,
      "Ġforms": 3486,
      "Ġelection": 3487,
      "Ġgrant": 3488,
      "Ġlisted": 3489,
      "zy": 3490,
      "inated": 3491,
      "Ġbow": 3492,
      "riage": 3493,
      "Ġbelow": 3494,
      "Ġcommander": 3495,
      "Ġrequest": 3496,
      "incip": 3497,
      "Ġinfluence": 3498,
      "Ġremoved": 3499,
      "mas": 3500,
      "cend": 3501,
      "ĠDem": 3502,
      "ander": 3503,
      "eway": 3504,
      "ously": 3505,
      "Ġparty": 3506,
      "Ġcentre": 3507,
      "ĠAnother": 3508,
      "Ġbring": 3509,
      "Ġ1930": 3510,
      "Ġobserv": 3511,
      "Ġassociated": 3512,
      "ken": 3513,
      "erve": 3514,
      "ergy": 3515,
      "eding": 3516,
      "Ġcle": 3517,
      "Ġdram": 3518,
      "ĠTropical": 3519,
      "Ġreach": 3520,
      "ĠCamb": 3521,
      "Ġnature": 3522,
      "ĠDan": 3523,
      "Ġconcept": 3524,
      "ĠWood": 3525,
      "Ġending": 3526,
      "Ġmeant": 3527,
      "Ġnumbers": 3528,
      "Ġacqu": 3529,
      "Ġdaughter": 3530,
      "Ġplanned": 3531,
      "ĠHead": 3532,
      "Ġserious": 3533,
      "ĠCroat": 3534,
      "Ġcyclone": 3535,
      "ĠVirgin": 3536,
      "Ġbound": 3537,
      "Ġmom": 3538,
      "Ġded": 3539,
      "oted": 3540,
      "ulu": 3541,
      "Ġleave": 3542,
      "ruit": 3543,
      "Ġdism": 3544,
      "Ġearth": 3545,
      "ĠArch": 3546,
      "ĠCommission": 3547,
      "Ġterms": 3548,
      "ĠEarth": 3549,
      "Ġchanged": 3550,
      "ĠAfrican": 3551,
      "Ġprivate": 3552,
      "ging": 3553,
      "lo": 3554,
      "mon": 3555,
      "Ġthus": 3556,
      "Ġlif": 3557,
      "ĠRA": 3558,
      "ĠDist": 3559,
      "ĠFore": 3560,
      "umed": 3561,
      "Ġsusp": 3562,
      "Ġbad": 3563,
      "Ġmorning": 3564,
      "Ġstone": 3565,
      "ĠLake": 3566,
      "Ġplat": 3567,
      "Ġplot": 3568,
      "Ġupper": 3569,
      "Ġunderst": 3570,
      "ylv": 3571,
      "Ġperformances": 3572,
      "Ġpersonal": 3573,
      "ĠMichigan": 3574,
      "Ġawarded": 3575,
      "Ġbirds": 3576,
      "ĠCourt": 3577,
      "II": 3578,
      "itation": 3579,
      "itect": 3580,
      "ĠArab": 3581,
      "Ġgot": 3582,
      "ĠRoss": 3583,
      "Ġplans": 3584,
      "Ġunable": 3585,
      "Ġwhether": 3586,
      "Ġtrade": 3587,
      "Ġrare": 3588,
      "Ġbuildings": 3589,
      "Ġdouble": 3590,
      "ĠNorthern": 3591,
      "awn": 3592,
      "atre": 3593,
      "Ġlay": 3594,
      "ĠMajor": 3595,
      "ĠBC": 3596,
      "irl": 3597,
      "Ġconver": 3598,
      "ĠLou": 3599,
      "ria": 3600,
      "ify": 3601,
      "Ġchall": 3602,
      "Ġflight": 3603,
      "Ġoperation": 3604,
      "Ġfinally": 3605,
      "Ġculture": 3606,
      "Ġresearch": 3607,
      "Ġtell": 3608,
      "ĠSal": 3609,
      "ĠSov": 3610,
      "Ġnatural": 3611,
      "aven": 3612,
      "iano": 3613,
      "ellig": 3614,
      "Ġweap": 3615,
      "hips": 3616,
      "Ġrecords": 3617,
      "Ġinfantry": 3618,
      "ĠBrad": 3619,
      "ĠTex": 3620,
      "ĠCenter": 3621,
      "Ġfocus": 3622,
      "Ġconducted": 3623,
      "ittee": 3624,
      "Ġasp": 3625,
      "ĠRose": 3626,
      "ĠJose": 3627,
      "ortun": 3628,
      "Ġcompared": 3629,
      "Ġsched": 3630,
      "ails": 3631,
      "Ġcollect": 3632,
      "ĠClub": 3633,
      "Ġissued": 3634,
      "Ġcompetition": 3635,
      "Ġcommented": 3636,
      "Ġstrength": 3637,
      "Ġmeaning": 3638,
      "Ġtakes": 3639,
      "Ġfell": 3640,
      "Ġliving": 3641,
      "ĠRob": 3642,
      "ective": 3643,
      "Ġyet": 3644,
      "aily": 3645,
      "ĠManila": 3646,
      "aught": 3647,
      "Ġaccomp": 3648,
      "At": 3649,
      "ev": 3650,
      "iant": 3651,
      "Ġdig": 3652,
      "ĠFI": 3653,
      "Ġtheme": 3654,
      "ĠAtt": 3655,
      "Ġcovered": 3656,
      "Ġmethod": 3657,
      "iqu": 3658,
      "ĠSen": 3659,
      "ĠDo": 3660,
      "Ġcoach": 3661,
      "Ġpresence": 3662,
      "venue": 3663,
      "Ġpolic": 3664,
      "Ġprevent": 3665,
      "Ġlog": 3666,
      "ĠBu": 3667,
      "ĠOver": 3668,
      "ifa": 3669,
      "ĠChic": 3670,
      "Ġ37": 3671,
      "Ġnewsp": 3672,
      "Ġraised": 3673,
      "Ġepisodes": 3674,
      "Ġadvance": 3675,
      "Ġattempted": 3676,
      "Ġfigure": 3677,
      "Ġindustry": 3678,
      "bury": 3679,
      "Ġtalk": 3680,
      "ening": 3681,
      "Ġbatter": 3682,
      "ili": 3683,
      "usband": 3684,
      "Ġhealth": 3685,
      "ĠRachel": 3686,
      "Ġ42": 3687,
      "Ġoffered": 3688,
      "ologist": 3689,
      "Ġbattles": 3690,
      "Ġnortheast": 3691,
      "Ġresponsible": 3692,
      "ras": 3693,
      "enon": 3694,
      "Ġdone": 3695,
      "ĠTay": 3696,
      "ado": 3697,
      "ĠBow": 3698,
      "rial": 3699,
      "Ġcompanies": 3700,
      "Ġwhole": 3701,
      "ĠIts": 3702,
      "Ġearned": 3703,
      "Ġ1993": 3704,
      "ĠMuseum": 3705,
      "Ġmarked": 3706,
      "Ġexperi": 3707,
      "Ġimmediately": 3708,
      "ĠCollege": 3709,
      "oir": 3710,
      "tain": 3711,
      "Ġour": 3712,
      "Ġbig": 3713,
      "Ġtourn": 3714,
      "Ġgiving": 3715,
      "ĠJane": 3716,
      "istics": 3717,
      "ĠEmp": 3718,
      "Ġvia": 3719,
      "Ġweaken": 3720,
      "Ġmatches": 3721,
      "Ġschools": 3722,
      "Ġera": 3723,
      "emorial": 3724,
      "Ġmurder": 3725,
      "bar": 3726,
      "itude": 3727,
      "Ġpark": 3728,
      "ĠMany": 3729,
      "olk": 3730,
      "Ġstories": 3731,
      "Ġselected": 3732,
      "Ġprep": 3733,
      "Ġdirectly": 3734,
      "ipped": 3735,
      "Ġhelped": 3736,
      "ĠPhilipp": 3737,
      "ĠWheeler": 3738,
      "Ġ+": 3739,
      "Ġsal": 3740,
      "alys": 3741,
      "Ġpurs": 3742,
      "ĠDel": 3743,
      "ĠJim": 3744,
      "Ġ39": 3745,
      "Ġ47": 3746,
      "Ġstarting": 3747,
      "Ġphot": 3748,
      "ĠStevens": 3749,
      "ĠPortug": 3750,
      "Ġbegins": 3751,
      "ĠCorps": 3752,
      "ĠTexas": 3753,
      "Ġhundred": 3754,
      "Ġcomposed": 3755,
      "Ġ1996": 3756,
      "Ġ1997": 3757,
      "embly": 3758,
      "onym": 3759,
      "Ġmarried": 3760,
      "ĠParliament": 3761,
      "Ġindividual": 3762,
      "Ġmachine": 3763,
      "kan": 3764,
      "vement": 3765,
      "Ġpay": 3766,
      "ĠTw": 3767,
      "ĠTrans": 3768,
      "ada": 3769,
      "etic": 3770,
      "ĠIf": 3771,
      "ows": 3772,
      "ĠForm": 3773,
      "Ġuses": 3774,
      "Ġnearby": 3775,
      "Ġtraditional": 3776,
      "ĠDepartment": 3777,
      "Ġgreater": 3778,
      "ĠCatholic": 3779,
      "Ġcause": 3780,
      "Ġhop": 3781,
      "Ġrear": 3782,
      "Ġreally": 3783,
      "ĠSar": 3784,
      "ĠCross": 3785,
      "ĠBob": 3786,
      "ĠNot": 3787,
      "rain": 3788,
      "Ġkind": 3789,
      "ports": 3790,
      "ĠSea": 3791,
      "ĠEnter": 3792,
      "Ġbattalion": 3793,
      "Ġwaters": 3794,
      "ĠChicago": 3795,
      "Ġbox": 3796,
      "Ġreject": 3797,
      "Ġnecess": 3798,
      "ĠNor": 3799,
      "ĠGo": 3800,
      "Ġclosed": 3801,
      "Ġevac": 3802,
      "Ġcontinue": 3803,
      "Ã¡n": 3804,
      "ĠTaylor": 3805,
      "MS": 3806,
      "Ġox": 3807,
      "isl": 3808,
      "Ġhour": 3809,
      "ĠHo": 3810,
      "ĠNic": 3811,
      "ocr": 3812,
      "Ġhighly": 3813,
      "Ġannual": 3814,
      "ĠAdm": 3815,
      "ĠChristmas": 3816,
      "Ġmarket": 3817,
      "isation": 3818,
      "Ġmor": 3819,
      "Ġthrow": 3820,
      "Ġnorm": 3821,
      "ĠJust": 3822,
      "berg": 3823,
      "Ġrecover": 3824,
      "Ġshell": 3825,
      "rowd": 3826,
      "Ġleaders": 3827,
      "ype": 3828,
      "Ġinside": 3829,
      "Ġfinanc": 3830,
      "Ġinitial": 3831,
      "stitute": 3832,
      "ĠAcad": 3833,
      "Ġcasualties": 3834,
      "Ġtax": 3835,
      "hew": 3836,
      "onc": 3837,
      "ĠBig": 3838,
      "Ġgraph": 3839,
      "iva": 3840,
      "ĠHu": 3841,
      "agon": 3842,
      "ondyl": 3843,
      "ibly": 3844,
      "Ġassault": 3845,
      "Ġartist": 3846,
      "Ġimpact": 3847,
      "Ġresulted": 3848,
      "orpor": 3849,
      "Ġgreatest": 3850,
      "Ġnucle": 3851,
      "veston": 3852,
      "CA": 3853,
      "ican": 3854,
      "ĠBey": 3855,
      "ether": 3856,
      "olf": 3857,
      "Ġ1991": 3858,
      "ĠScot": 3859,
      "Ġcourse": 3860,
      "Ġsituation": 3861,
      "ĠSeries": 3862,
      "ĠItalian": 3863,
      "TV": 3864,
      "ien": 3865,
      "edo": 3866,
      "Ġdom": 3867,
      "Ġdyn": 3868,
      "ĠLos": 3869,
      "aped": 3870,
      "Ġdefend": 3871,
      "Ġspecific": 3872,
      "Ġmetal": 3873,
      "Ġdrum": 3874,
      "Ġmiddle": 3875,
      "ares": 3876,
      "hic": 3877,
      "like": 3878,
      "Ġess": 3879,
      "rey": 3880,
      "Ġsout": 3881,
      "Ġpil": 3882,
      "Ġhot": 3883,
      "uries": 3884,
      "Ġdeploy": 3885,
      "Ġsecret": 3886,
      "Ġ150": 3887,
      "Ġcontrovers": 3888,
      "Ġbooks": 3889,
      "Ġattempts": 3890,
      "ospondyl": 3891,
      "Ġgods": 3892,
      "Ġfigures": 3893,
      "Ġinspired": 3894,
      "Ġinformation": 3895,
      "Ġtouchdown": 3896,
      "Ã³n": 3897,
      "ĠService": 3898,
      "pool": 3899,
      "rical": 3900,
      "Ġsides": 3901,
      "atops": 3902,
      "ĠSol": 3903,
      "Ġthings": 3904,
      "ĠFoot": 3905,
      "Ġsev": 3906,
      "anta": 3907,
      "Ġactive": 3908,
      "Ġheadquarters": 3909,
      "Ġextended": 3910,
      "Ġservices": 3911,
      "Ġallowing": 3912,
      "Ġtracks": 3913,
      "Ġboats": 3914,
      "Ġstandard": 3915,
      "Ġsomething": 3916,
      "lers": 3917,
      "light": 3918,
      "rate": 3919,
      "sen": 3920,
      "Ġx": 3921,
      "Ġfeder": 3922,
      "isk": 3923,
      "Ġpick": 3924,
      "ĠSaint": 3925,
      "ĠAre": 3926,
      "Ġnaval": 3927,
      "ctor": 3928,
      "Ġadvant": 3929,
      "Ġpowerful": 3930,
      "Ġaudience": 3931,
      "ĠParty": 3932,
      "rid": 3933,
      "Ġpath": 3934,
      "ĠAI": 3935,
      "adium": 3936,
      "ims": 3937,
      "Ġstating": 3938,
      "Ġsearch": 3939,
      "Ġenj": 3940,
      "Ġ65": 3941,
      "Ġ1994": 3942,
      "Ġnumerous": 3943,
      "Ġrefused": 3944,
      "Ġapproach": 3945,
      "ĠGeorg": 3946,
      "Ġneeded": 3947,
      "Ġvocals": 3948,
      "Ġstruck": 3949,
      "uit": 3950,
      "Ġast": 3951,
      "Ġwalk": 3952,
      "itch": 3953,
      "Ġmax": 3954,
      "ĠTurn": 3955,
      "ĠLong": 3956,
      "agan": 3957,
      "aging": 3958,
      "ĠUp": 3959,
      "Ġheads": 3960,
      "Ġheavily": 3961,
      "ĠCarolina": 3962,
      "ĠSince": 3963,
      "Ġrate": 3964,
      "Ġrule": 3965,
      "Ġroom": 3966,
      "Ġ180": 3967,
      "izing": 3968,
      "Ġprec": 3969,
      "Ġblood": 3970,
      "Ġconfir": 3971,
      "Ġintensity": 3972,
      "Ġmultip": 3973,
      "ĠOperation": 3974,
      "Ġcontemporary": 3975,
      "Ġbodies": 3976,
      "roll": 3977,
      "ams": 3978,
      "ĠVilla": 3979,
      "Ġvariety": 3980,
      "ĠCharl": 3981,
      "Ġcombat": 3982,
      "ĠJackson": 3983,
      "Ġgenus": 3984,
      "Ġconditions": 3985,
      "Ġmeeting": 3986,
      "Ġseparate": 3987,
      "Ġpurp": 3988,
      "ĠEmpire": 3989,
      "Ġtask": 3990,
      "eds": 3991,
      "ĠMill": 3992,
      "ĠJam": 3993,
      "ĠThree": 3994,
      "Ġpeace": 3995,
      "Ġtransl": 3996,
      "ĠSoviet": 3997,
      "house": 3998,
      "Ġcrowd": 3999,
      "Ġhusband": 4000,
      "iles": 4001,
      "ĠBoth": 4002,
      "ĠIll": 4003,
      "ĠLady": 4004,
      "ĠOtt": 4005,
      "Ġplant": 4006,
      "ecting": 4007,
      "Ġ51": 4008,
      "ixon": 4009,
      "Ġhigher": 4010,
      "Ġdeclared": 4011,
      "Ġpeaked": 4012,
      "Ġsource": 4013,
      "ĠSmith": 4014,
      "Ġhouses": 4015,
      "chester": 4016,
      "Ġeducation": 4017,
      "Ġslightly": 4018,
      "ylvania": 4019,
      "ĠTenn": 4020,
      "ĠSix": 4021,
      "ols": 4022,
      "ushed": 4023,
      "ĠOut": 4024,
      "perial": 4025,
      "Ġ76": 4026,
      "Ġproducer": 4027,
      "Ġpresented": 4028,
      "ĠConf": 4029,
      "Ġhands": 4030,
      "Ġreduced": 4031,
      "Ġrespectively": 4032,
      "can": 4033,
      "lam": 4034,
      "uated": 4035,
      "vin": 4036,
      "yph": 4037,
      "Ġple": 4038,
      "icip": 4039,
      "ĠAlex": 4040,
      "omer": 4041,
      "Ġnative": 4042,
      "ĠNations": 4043,
      "odon": 4044,
      "rance": 4045,
      "Ġresidents": 4046,
      "ribution": 4047,
      "Ġsecurity": 4048,
      "Ġstudies": 4049,
      "Ġextre": 4050,
      "Ġofficer": 4051,
      "Ġsixth": 4052,
      "ĠHighway": 4053,
      "Ġcollection": 4054,
      "Ġcelebr": 4055,
      "anas": 4056,
      "Ġthr": 4057,
      "ĠMidd": 4058,
      "Ġhero": 4059,
      "ĠLand": 4060,
      "Ġ1992": 4061,
      "Ġconstit": 4062,
      "Ġfriends": 4063,
      "ĠPenns": 4064,
      "ĠTheir": 4065,
      "ĠHum": 4066,
      "ĠFinal": 4067,
      "ĠGroup": 4068,
      "Ġchampionship": 4069,
      "Ġspace": 4070,
      "irection": 4071,
      "Ġ44": 4072,
      "ension": 4073,
      "Ġprincip": 4074,
      "Ġnorthwest": 4075,
      "Ġcompletely": 4076,
      "arents": 4077,
      "Ġwounded": 4078,
      "bon": 4079,
      "ka": 4080,
      "Åį": 4081,
      "inn": 4082,
      "iny": 4083,
      "Ġsaf": 4084,
      "Ġgrand": 4085,
      "iral": 4086,
      "Ġbeat": 4087,
      "ĠPost": 4088,
      "ĠLo": 4089,
      "ĠLive": 4090,
      "estival": 4091,
      "pted": 4092,
      "Ġtext": 4093,
      "athan": 4094,
      "Ġmeans": 4095,
      "Ġwriters": 4096,
      "Ġbridge": 4097,
      "Ġcombined": 4098,
      "Ġactivity": 4099,
      "Ġeye": 4100,
      "Ġintern": 4101,
      "rol": 4102,
      "oses": 4103,
      "ĠWash": 4104,
      "andid": 4105,
      "illed": 4106,
      "Ġdisplay": 4107,
      "eyer": 4108,
      "iverpool": 4109,
      "Ġsyn": 4110,
      "Ġsinger": 4111,
      "Ġcontinues": 4112,
      "Ġrespond": 4113,
      "Ġdistance": 4114,
      "Ġcountries": 4115,
      "Ġmarriage": 4116,
      "Ġarchitect": 4117,
      "Ġadminist": 4118,
      "Ġcopies": 4119,
      "Ġcontrast": 4120,
      "ket": 4121,
      "Ġir": 4122,
      "alist": 4123,
      "oura": 4124,
      "ĠChe": 4125,
      "ĠCast": 4126,
      "ĠCivil": 4127,
      "tered": 4128,
      "ĠEr": 4129,
      "ift": 4130,
      "ogue": 4131,
      "Ġ48": 4132,
      "Ġdisapp": 4133,
      "Ġsymb": 4134,
      "Ġexpected": 4135,
      "orpedo": 4136,
      "ĠParis": 4137,
      "ĠHaifa": 4138,
      "Ġvehic": 4139,
      "Ġreinfor": 4140,
      "track": 4141,
      "Ġcam": 4142,
      "Ġborder": 4143,
      "asc": 4144,
      "Ġdraft": 4145,
      "ĠTime": 4146,
      "stone": 4147,
      "ĠCer": 4148,
      "emic": 4149,
      "erset": 4150,
      "Ġsust": 4151,
      "ĠKn": 4152,
      "Ġ34": 4153,
      "Ġdispl": 4154,
      "Ġinteract": 4155,
      "Ġinches": 4156,
      "ĠRev": 4157,
      "Ġissues": 4158,
      "Ġlevels": 4159,
      "ĠPolish": 4160,
      "Ġwidely": 4161,
      "ĠSomal": 4162,
      "Ġtransferred": 4163,
      "Ġconcluded": 4164,
      "ware": 4165,
      "inth": 4166,
      "Ġpow": 4167,
      "ĠGames": 4168,
      "Ġang": 4169,
      "ĠAlice": 4170,
      "ĠYoung": 4171,
      "Ġrelief": 4172,
      "Ġactually": 4173,
      "ĠCont": 4174,
      "Ġcathedral": 4175,
      "Ġactivities": 4176,
      "Ġstrike": 4177,
      "Ġterritory": 4178,
      "ĠWashington": 4179,
      "iated": 4180,
      "anz": 4181,
      "Ġbene": 4182,
      "ĠCapt": 4183,
      "ĠBurn": 4184,
      "ems": 4185,
      "umber": 4186,
      "ocks": 4187,
      "ĠSpec": 4188,
      "Ġefforts": 4189,
      "Ġboard": 4190,
      "while": 4191,
      "Ġenjoy": 4192,
      "ĠPennsylvania": 4193,
      "ees": 4194,
      "the": 4195,
      "Ã¼": 4196,
      "Ġtoward": 4197,
      "iled": 4198,
      "ĠCor": 4199,
      "ulations": 4200,
      "ĠNixon": 4201,
      "ĠJul": 4202,
      "asty": 4203,
      "Ġactions": 4204,
      "Ġsuppl": 4205,
      "annel": 4206,
      "ĠAustralians": 4207,
      "Ġdescribes": 4208,
      "Ġeffort": 4209,
      "Ġelev": 4210,
      "ĠDef": 4211,
      "Ġsexual": 4212,
      "Ġwithdraw": 4213,
      "ĠQueen": 4214,
      "ĠGalveston": 4215,
      "Ġancient": 4216,
      "bour": 4217,
      "ij": 4218,
      "ufact": 4219,
      "Ġrough": 4220,
      "Ġtorpedo": 4221,
      "inus": 4222,
      "onic": 4223,
      "isher": 4224,
      "anes": 4225,
      "Ġinh": 4226,
      "Ġpun": 4227,
      "Ġreign": 4228,
      "ĠNaz": 4229,
      "ĠLittle": 4230,
      "ĠLiverpool": 4231,
      "anded": 4232,
      "bery": 4233,
      "Ġexhib": 4234,
      "Ġadult": 4235,
      "Ġmanaged": 4236,
      "Ġoffensive": 4237,
      "Ġattention": 4238,
      "Ġqual": 4239,
      "Ġbackground": 4240,
      "Ġ1942": 4241,
      "ĠColon": 4242,
      "Ġironcl": 4243,
      "Ġrainfall": 4244,
      "Ġrevealed": 4245,
      "mark": 4246,
      "Ġtur": 4247,
      "Ġtoday": 4248,
      "Ġmission": 4249,
      "oured": 4250,
      "irit": 4251,
      "utch": 4252,
      "ĠFar": 4253,
      "ersh": 4254,
      "ĠChris": 4255,
      "Ġ49": 4256,
      "Ġ182": 4257,
      "Ġdefense": 4258,
      "Ġblue": 4259,
      "iami": 4260,
      "Ġdistinct": 4261,
      "ĠSpain": 4262,
      "Ġcounty": 4263,
      "Ġresulting": 4264,
      "Ġrights": 4265,
      "Ġprimarily": 4266,
      "Ġbecomes": 4267,
      "Ġaccepted": 4268,
      "Ġsequence": 4269,
      "ĠVietnam": 4270,
      "ĠLouis": 4271,
      "ĠJoseph": 4272,
      "hood": 4273,
      "right": 4274,
      "Ġsays": 4275,
      "Ġmel": 4276,
      "Ġhabit": 4277,
      "ĠCat": 4278,
      "ecause": 4279,
      "ĠBook": 4280,
      "idian": 4281,
      "imony": 4282,
      "otes": 4283,
      "ĠDam": 4284,
      "Ġ52": 4285,
      "Ġmainly": 4286,
      "Ġalongside": 4287,
      "Ġdesignated": 4288,
      "ĠFranc": 4289,
      "Ġopportun": 4290,
      "Ġmountain": 4291,
      "ĠFootball": 4292,
      "een": 4293,
      "Ġsquadron": 4294,
      "Ġsquare": 4295,
      "Ġfaced": 4296,
      "ĠSir": 4297,
      "ĠSouthern": 4298,
      "usion": 4299,
      "owler": 4300,
      "ĠDj": 4301,
      "Ġkick": 4302,
      "Ġrecent": 4303,
      "Ġ181": 4304,
      "ĠThrough": 4305,
      "Ġdise": 4306,
      "ampion": 4307,
      "Ġconcent": 4308,
      "Ġdemonst": 4309,
      "Ġpattern": 4310,
      "Ġtrees": 4311,
      "ĠGovernment": 4312,
      "Ch": 4313,
      "cy": 4314,
      "Ġwear": 4315,
      "Ġpound": 4316,
      "room": 4317,
      "ĠDer": 4318,
      "ĠFour": 4319,
      "osh": 4320,
      "ibr": 4321,
      "Ġprint": 4322,
      "ledge": 4323,
      "Ġfeaturing": 4324,
      "ĠCommon": 4325,
      "Ġappearances": 4326,
      "Ġprogress": 4327,
      "ĠAngeles": 4328,
      "nesota": 4329,
      "Ġquestion": 4330,
      "enant": 4331,
      "ingu": 4332,
      "Ġpiano": 4333,
      "ela": 4334,
      "Ġonto": 4335,
      "use": 4336,
      "ĠWater": 4337,
      "ĠJe": 4338,
      "Ġability": 4339,
      "Ġroles": 4340,
      "Ġjump": 4341,
      "Ġ64": 4342,
      "ĠArm": 4343,
      "echan": 4344,
      "ĠKorean": 4345,
      "Ġtrue": 4346,
      "hold": 4347,
      "kin": 4348,
      "itness": 4349,
      "Ġcorn": 4350,
      "ena": 4351,
      "Ġpaper": 4352,
      "ĠTri": 4353,
      "acher": 4354,
      "ĠBon": 4355,
      "ĠBol": 4356,
      "ĠDes": 4357,
      "ĠFer": 4358,
      "ĠGreen": 4359,
      "apo": 4360,
      "Ġcompos": 4361,
      "Ġ46": 4362,
      "Ġplays": 4363,
      "Ġdepart": 4364,
      "ĠIndepend": 4365,
      "ĠClass": 4366,
      "Ġorganization": 4367,
      "ĠMinnesota": 4368,
      "ĠHistor": 4369,
      "Ġcondoms": 4370,
      "Ġfederal": 4371,
      "cle": 4372,
      "Ġsense": 4373,
      "Ġbott": 4374,
      "Ġparents": 4375,
      "ĠCons": 4376,
      "adm": 4377,
      "Ġaltern": 4378,
      "Ġcoming": 4379,
      "Ġvess": 4380,
      "ĠKent": 4381,
      "Ġyoun": 4382,
      "Ġresc": 4383,
      "Ġroy": 4384,
      "Ġ55": 4385,
      "Ġrecomm": 4386,
      "Ġscoring": 4387,
      "Ġseasons": 4388,
      "Ġquality": 4389,
      "Ġcalling": 4390,
      "Ġshowed": 4391,
      "Ġportion": 4392,
      "shire": 4393,
      "Ġobserved": 4394,
      "ceeded": 4395,
      "Ġpractice": 4396,
      "ĠAcademy": 4397,
      "BA": 4398,
      "bed": 4399,
      "ãĥ": 4400,
      "Ġhol": 4401,
      "Ġlot": 4402,
      "ĠBre": 4403,
      "ĠPen": 4404,
      "Ġrhy": 4405,
      "intulu": 4406,
      "Ġrelatively": 4407,
      "airs": 4408,
      "Ġinstit": 4409,
      "ervation": 4410,
      "ĠManchester": 4411,
      "Ġelected": 4412,
      "ironment": 4413,
      "Ġhistorical": 4414,
      "ĠScotland": 4415,
      "yphoon": 4416,
      "mun": 4417,
      "Ġwords": 4418,
      "Ġlosing": 4419,
      "ĠWW": 4420,
      "ĠLock": 4421,
      "essa": 4422,
      "Ġuniversity": 4423,
      "Ġremark": 4424,
      "ologists": 4425,
      "Ġinvasion": 4426,
      "Ġreception": 4427,
      "Ġbrown": 4428,
      "Ġowned": 4429,
      "Ġ1920": 4430,
      "Ġencoun": 4431,
      "ĠSomerset": 4432,
      "Ġstrugg": 4433,
      "ĠMosley": 4434,
      "Ġultimately": 4435,
      "ĠVirginia": 4436,
      "gal": 4437,
      "kn": 4438,
      "ĠMiami": 4439,
      "ĠGar": 4440,
      "estic": 4441,
      "Ġrang": 4442,
      "Ġsuc": 4443,
      "Ġarmed": 4444,
      "Ġscale": 4445,
      "Ġapparent": 4446,
      "ĠNews": 4447,
      "Ġ1941": 4448,
      "Ġedge": 4449,
      "ĠSociety": 4450,
      "iro": 4451,
      "pole": 4452,
      "Ġathlet": 4453,
      "Ġfast": 4454,
      "Ġnation": 4455,
      "Ġheart": 4456,
      "osen": 4457,
      "udd": 4458,
      "essions": 4459,
      "Ġenemy": 4460,
      "Ġdefence": 4461,
      "Ġlegal": 4462,
      "Ġtwenty": 4463,
      "Ġinfluenced": 4464,
      "Ġexcav": 4465,
      "ĠBusch": 4466,
      "elligence": 4467,
      "oncÃ©": 4468,
      "met": 4469,
      "Ġfully": 4470,
      "ications": 4471,
      "Ġmile": 4472,
      "Ġthous": 4473,
      "Ġspl": 4474,
      "Ġagg": 4475,
      "Ġoffer": 4476,
      "Ġprepar": 4477,
      "Ġexpressed": 4478,
      "Ġinstr": 4479,
      "Ġtypically": 4480,
      "ricket": 4481,
      "Ġproteins": 4482,
      "Ġsurrounding": 4483,
      "Ġcannot": 4484,
      "ĠHawai": 4485,
      "eg": 4486,
      "town": 4487,
      "onents": 4488,
      "road": 4489,
      "Ġmole": 4490,
      "ĠBintulu": 4491,
      "utions": 4492,
      "Ġstep": 4493,
      "ĠField": 4494,
      "oper": 4495,
      "pping": 4496,
      "Ġspread": 4497,
      "ĠAnn": 4498,
      "Ġproduce": 4499,
      "Ġprison": 4500,
      "Ġsets": 4501,
      "Ġemph": 4502,
      "Ġportray": 4503,
      "Ġrepresented": 4504,
      "Ġchem": 4505,
      "Ġnarrow": 4506,
      "Ġhomes": 4507,
      "Ġdissip": 4508,
      "uzz": 4509,
      "Ġadopted": 4510,
      "alysis": 4511,
      "ĠBeyoncÃ©": 4512,
      "eption": 4513,
      "Ġwing": 4514,
      "Ġmem": 4515,
      "ĠSum": 4516,
      "acement": 4517,
      "ĠRam": 4518,
      "ĠDou": 4519,
      "Ġcontact": 4520,
      "ikal": 4521,
      "orship": 4522,
      "Ġemot": 4523,
      "Ġorganized": 4524,
      "Ġlegisl": 4525,
      "Ġmagn": 4526,
      "Ġreaction": 4527,
      "ĠRussian": 4528,
      "Ġadvantage": 4529,
      "Ġmaximum": 4530,
      "burg": 4531,
      "gs": 4532,
      "mes": 4533,
      "ona": 4534,
      "Ġsen": 4535,
      "Ġinch": 4536,
      "Ġdu": 4537,
      "ĠMatt": 4538,
      "ends": 4539,
      "Ġwebs": 4540,
      "Ġneigh": 4541,
      "ugby": 4542,
      "Ġfloor": 4543,
      "Ġ1986": 4544,
      "Ġartists": 4545,
      "Ġextra": 4546,
      "Ġbroken": 4547,
      "elsh": 4548,
      "Ġtried": 4549,
      "Ġofficials": 4550,
      "Ġnuclear": 4551,
      "admium": 4552,
      "lim": 4553,
      "Ġaid": 4554,
      "ala": 4555,
      "alle": 4556,
      "Ġpal": 4557,
      "ĠCrit": 4558,
      "ĠOcean": 4559,
      "Ġvo": 4560,
      "astic": 4561,
      "Ġmanufact": 4562,
      "Ġthemes": 4563,
      "Ġedition": 4564,
      "Ġreports": 4565,
      "Ġpersonnel": 4566,
      "Ġtypes": 4567,
      "ĠPrince": 4568,
      "Ġearliest": 4569,
      "Ġpaint": 4570,
      "ĠCaptain": 4571,
      "mitted": 4572,
      "ply": 4573,
      "rong": 4574,
      "ux": 4575,
      "enge": 4576,
      "Ġmis": 4577,
      "ĠPit": 4578,
      "ĠLi": 4579,
      "ĠGall": 4580,
      "ĠUl": 4581,
      "ĠAlkan": 4582,
      "ĠMarine": 4583,
      "ĠBlue": 4584,
      "ĠCommun": 4585,
      "Ġcapture": 4586,
      "ĠWeek": 4587,
      "Ġdivided": 4588,
      "Ġsources": 4589,
      "Ġhyd": 4590,
      "ĠOpen": 4591,
      "Ġtower": 4592,
      "Ġabandoned": 4593,
      "ĠDistrict": 4594,
      "Ġfinancial": 4595,
      "FA": 4596,
      "pre": 4597,
      "writ": 4598,
      "Ġsister": 4599,
      "Ġwa": 4600,
      "Ġmouth": 4601,
      "Ġhorse": 4602,
      "ĠCap": 4603,
      "amily": 4604,
      "ĠMass": 4605,
      "etts": 4606,
      "ĠPop": 4607,
      "ĠRo": 4608,
      "Ġalone": 4609,
      "ĠWelsh": 4610,
      "issipp": 4611,
      "Ġacting": 4612,
      "Ġ1988": 4613,
      "ĠColumb": 4614,
      "Ġmodel": 4615,
      "Ġtitled": 4616,
      "Ġsoundtrack": 4617,
      "Ġachieved": 4618,
      "Ġemphas": 4619,
      "cript": 4620,
      "nospondyl": 4621,
      "Ġsn": 4622,
      "Ġdirection": 4623,
      "Ġstopp": 4624,
      "unction": 4625,
      "ĠKa": 4626,
      "ogad": 4627,
      "izes": 4628,
      "ĠSever": 4629,
      "Ġactor": 4630,
      "Ġspecim": 4631,
      "Ġrepe": 4632,
      "Ġprominent": 4633,
      "Ġshortly": 4634,
      "Ġviewers": 4635,
      "Ġaffected": 4636,
      "ĠMississipp": 4637,
      "Ġroyal": 4638,
      "che": 4639,
      "sy": 4640,
      "wen": 4641,
      "ĠAv": 4642,
      "Ġthir": 4643,
      "ĠCa": 4644,
      "ĠBoy": 4645,
      "ĠHome": 4646,
      "ĠInn": 4647,
      "send": 4648,
      "Ġdefensive": 4649,
      "Ġmovie": 4650,
      "Ġwrite": 4651,
      "Ġfounded": 4652,
      "Ġbasis": 4653,
      "ĠSecret": 4654,
      "Ġnewspaper": 4655,
      "ĠMiddle": 4656,
      "Ġcities": 4657,
      "Ġcandid": 4658,
      "alions": 4659,
      "Ġmind": 4660,
      "ĠTod": 4661,
      "ĠAvenue": 4662,
      "ura": 4663,
      "Ġgirl": 4664,
      "ĠFleet": 4665,
      "ĠLar": 4666,
      "ograp": 4667,
      "Ġattended": 4668,
      "Ġweak": 4669,
      "Ġdoing": 4670,
      "ĠJohnson": 4671,
      "Ġoperated": 4672,
      "Ġstructures": 4673,
      "Ġflooding": 4674,
      "ĠTurk": 4675,
      "Ġmentioned": 4676,
      "ĠMississippi": 4677,
      "Ġsac": 4678,
      "Ġfruit": 4679,
      "Ġpaid": 4680,
      "Ġhospital": 4681,
      "ĠMeyer": 4682,
      "irm": 4683,
      "ipment": 4684,
      "claim": 4685,
      "ĠArg": 4686,
      "Ġofficially": 4687,
      "Ġcouple": 4688,
      "ĠRhodes": 4689,
      "Ġpotential": 4690,
      "Ġdedicated": 4691,
      "Ġtournament": 4692,
      "Ġxenon": 4693,
      "known": 4694,
      "bit": 4695,
      "rig": 4696,
      "uous": 4697,
      "wide": 4698,
      "orus": 4699,
      "Ġmechan": 4700,
      "ĠMat": 4701,
      "ette": 4702,
      "Ġcomedy": 4703,
      "Ġplaces": 4704,
      "Ġshape": 4705,
      "ector": 4706,
      "Ġyour": 4707,
      "eller": 4708,
      "anger": 4709,
      "prise": 4710,
      "ĠAdd": 4711,
      "ĠRecords": 4712,
      "Ġauthorities": 4713,
      "Ġcultural": 4714,
      "ĠTemple": 4715,
      "bird": 4716,
      "ãģ": 4717,
      "ĠTikal": 4718,
      "Ġlives": 4719,
      "ĠBh": 4720,
      "ĠBalt": 4721,
      "ĠDirect": 4722,
      "ĠLie": 4723,
      "ĠGib": 4724,
      "Ġproved": 4725,
      "akapo": 4726,
      "ĠKir": 4727,
      "ĠInt": 4728,
      "Ġarrest": 4729,
      "Ġcompound": 4730,
      "Ġ41": 4731,
      "Ġ43": 4732,
      "Ġperman": 4733,
      "Ġscient": 4734,
      "Ġconsisted": 4735,
      "Ġbroke": 4736,
      "inkel": 4737,
      "Ġpassing": 4738,
      "ĠProt": 4739,
      "Ġtitles": 4740,
      "Ġtrial": 4741,
      "Ġbasket": 4742,
      "ĠMeridian": 4743,
      "ogadish": 4744,
      "rative": 4745,
      "inem": 4746,
      "Ġsens": 4747,
      "edd": 4748,
      "ora": 4749,
      "Ġmess": 4750,
      "lection": 4751,
      "Ġlb": 4752,
      "ĠBost": 4753,
      "Ġrat": 4754,
      "Ġroll": 4755,
      "Ġappeal": 4756,
      "athus": 4757,
      "orney": 4758,
      "Ġenter": 4759,
      "ĠEngine": 4760,
      "fully": 4761,
      "Ġ179": 4762,
      "Ġartic": 4763,
      "Ġoccasion": 4764,
      "ĠAnderson": 4765,
      "Ġcausing": 4766,
      "ĠEdward": 4767,
      "ĠRichmond": 4768,
      "Ġsociety": 4769,
      "Ġpiece": 4770,
      "VD": 4771,
      "uan": 4772,
      "inary": 4773,
      "rect": 4774,
      "Ġsales": 4775,
      "Ġoil": 4776,
      "Ġhun": 4777,
      "ĠSil": 4778,
      "ĠBet": 4779,
      "Ġgrew": 4780,
      "istry": 4781,
      "Ġ56": 4782,
      "ricult": 4783,
      "Ġ93": 4784,
      "Ġcolumn": 4785,
      "ĠAmericans": 4786,
      "Ġlanding": 4787,
      "Ġolder": 4788,
      "beer": 4789,
      "Ġindividuals": 4790,
      "Ġillust": 4791,
      "Ġdetermined": 4792,
      "Ġstraight": 4793,
      "Ġweapons": 4794,
      "ĠIllino": 4795,
      "ogadishu": 4796,
      "uff": 4797,
      "Ġut": 4798,
      "Ġtry": 4799,
      "Ġcore": 4800,
      "Ġpan": 4801,
      "Ġdut": 4802,
      "ĠCra": 4803,
      "ĠHal": 4804,
      "ĠFred": 4805,
      "ĠWay": 4806,
      "resh": 4807,
      "iana": 4808,
      "Ġunivers": 4809,
      "Ġimages": 4810,
      "Ġincorpor": 4811,
      "Ġseconds": 4812,
      "aha": 4813,
      "Ġletter": 4814,
      "ĠRosebery": 4815,
      "inkelstein": 4816,
      "isters": 4817,
      "Ġbank": 4818,
      "ĠRaj": 4819,
      "Ġsport": 4820,
      "Ġunknown": 4821,
      "Ġcontain": 4822,
      "Ġadj": 4823,
      "ĠYue": 4824,
      "Ġ97": 4825,
      "Ġconsecutive": 4826,
      "Ġformation": 4827,
      "Ġmonument": 4828,
      "ĠShiva": 4829,
      "Ġ1985": 4830,
      "ancy": 4831,
      "Ġpossibly": 4832,
      "Ġorders": 4833,
      "Ġprojects": 4834,
      "Ġsites": 4835,
      "ĠBraat": 4836,
      "Ġdoub": 4837,
      "Ġphysical": 4838,
      "Ġkilometres": 4839,
      "Ġschedul": 4840,
      "ĠTurner": 4841,
      "ef": 4842,
      "iti": 4843,
      "Ġfired": 4844,
      "Ġfiction": 4845,
      "Ġhair": 4846,
      "ĠMort": 4847,
      "Ġstop": 4848,
      "ĠWild": 4849,
      "ĠOx": 4850,
      "Ġ53": 4851,
      "Ġimag": 4852,
      "Ġfollows": 4853,
      "Ġ1944": 4854,
      "Ġleader": 4855,
      "ĠAndrew": 4856,
      "Ġsuggests": 4857,
      "Ġcriticized": 4858,
      "Ġrapidly": 4859,
      "Ġcerem": 4860,
      "gn": 4861,
      "Ġfrag": 4862,
      "omy": 4863,
      "ĠBall": 4864,
      "Ġgar": 4865,
      "ĠDVD": 4866,
      "ĠNes": 4867,
      "ĠOf": 4868,
      "abama": 4869,
      "Ġworkers": 4870,
      "Ġpoly": 4871,
      "Ġflank": 4872,
      "Ġ120": 4873,
      "Ġclaims": 4874,
      "Ġforeign": 4875,
      "Ġkept": 4876,
      "Ġidentified": 4877,
      "Ġhonor": 4878,
      "win": 4879,
      "orter": 4880,
      "Ġlaid": 4881,
      "ĠBond": 4882,
      "Ġgained": 4883,
      "ĠHorse": 4884,
      "unte": 4885,
      "ĠFowler": 4886,
      "aine": 4887,
      "Ġseek": 4888,
      "Ġchief": 4889,
      "Ġrow": 4890,
      "ĠThunder": 4891,
      "Ġsupply": 4892,
      "uese": 4893,
      "Ġkilling": 4894,
      "Ġrequire": 4895,
      "Ġequipment": 4896,
      "Ġmanagement": 4897,
      "Ġprotein": 4898,
      "ĠPhilippines": 4899,
      "ĠOttoman": 4900,
      "With": 4901,
      "uct": 4902,
      "ãĤ": 4903,
      "Ġahead": 4904,
      "Ġwild": 4905,
      "ĠBul": 4906,
      "antly": 4907,
      "gend": 4908,
      "Ġattend": 4909,
      "Ġacad": 4910,
      "Ġentrance": 4911,
      "ĠClark": 4912,
      "Ġtemple": 4913,
      "Ġbehav": 4914,
      "fficient": 4915,
      "ĠBackground": 4916,
      "ĠPortuguese": 4917,
      "Ġdisease": 4918,
      "bitt": 4919,
      "Ġtim": 4920,
      "Ġsought": 4921,
      "Ġreaching": 4922,
      "adel": 4923,
      "ĠBBC": 4924,
      "Ġhere": 4925,
      "ĠGood": 4926,
      "ighth": 4927,
      "ĠStone": 4928,
      "Ġyellow": 4929,
      "Ġadvert": 4930,
      "Ġenergy": 4931,
      "Ġ1964": 4932,
      "ĠAssembly": 4933,
      "Ġwalls": 4934,
      "Ġsustained": 4935,
      "aith": 4936,
      "born": 4937,
      "more": 4938,
      "mission": 4939,
      "yr": 4940,
      "Ġsand": 4941,
      "Ġwor": 4942,
      "Ġfought": 4943,
      "ishes": 4944,
      "Ġhors": 4945,
      "ĠSo": 4946,
      "ĠEastern": 4947,
      "ĠOm": 4948,
      "Ġspirit": 4949,
      "ella": 4950,
      "Ġ54": 4951,
      "Ġ57": 4952,
      "Ġ62": 4953,
      "Ġweight": 4954,
      "Ġnewly": 4955,
      "Ġcharge": 4956,
      "Ġlandfall": 4957,
      "ĠBridge": 4958,
      "Ġgrass": 4959,
      "Ġdebuted": 4960,
      "ushing": 4961,
      "Ġpieces": 4962,
      "Ġenvironment": 4963,
      "Ġtarget": 4964,
      "Ġconfirmed": 4965,
      "An": 4966,
      "ua": 4967,
      "uge": 4968,
      "Ġwars": 4969,
      "asure": 4970,
      "Ġmaster": 4971,
      "ilies": 4972,
      "Ġload": 4973,
      "ĠHy": 4974,
      "ĠFurther": 4975,
      "ĠWat": 4976,
      "ĠLl": 4977,
      "Ġchosen": 4978,
      "Ġexec": 4979,
      "Ġspot": 4980,
      "Ġsports": 4981,
      "outs": 4982,
      "Ġmuseum": 4983,
      "Ġemperor": 4984,
      "Ġsimply": 4985,
      "Ġwinter": 4986,
      "Ġreference": 4987,
      "Ġelim": 4988,
      "Ġauthority": 4989,
      "Ġpitched": 4990,
      "Ġpromoted": 4991,
      "Ġletters": 4992,
      "Ġmeasure": 4993,
      "ĠOlympic": 4994,
      "Ġmoment": 4995,
      "Ġdismiss": 4996,
      "onymous": 4997,
      "ĠNicole": 4998,
      "iate": 4999,
      "Ġrom": 5000,
      "Ġtact": 5001,
      "Ġmob": 5002,
      "Ġdiam": 5003,
      "ador": 5004,
      "ĠMax": 5005,
      "ĠHMS": 5006,
      "Ġheight": 5007,
      "ĠFin": 5008,
      "oren": 5009,
      "Ġneut": 5010,
      "Ġregions": 5011,
      "Ġalbums": 5012,
      "Ġ1987": 5013,
      "Ġreturning": 5014,
      "Ġpasses": 5015,
      "Ġadvanced": 5016,
      "ĠChurchill": 5017,
      "Ġtwice": 5018,
      "Ġcases": 5019,
      "Ġfunction": 5020,
      "Ġcondition": 5021,
      "Ġburied": 5022,
      "ĠValley": 5023,
      "Ġgranted": 5024,
      "Ġdomestic": 5025,
      "lings": 5026,
      "Ġtun": 5027,
      "inet": 5028,
      "Ġsay": 5029,
      "Ġwave": 5030,
      "ĠSat": 5031,
      "utenant": 5032,
      "ĠDen": 5033,
      "ĠFox": 5034,
      "ĠLord": 5035,
      "ĠGre": 5036,
      "ĠEnd": 5037,
      "duction": 5038,
      "intin": 5039,
      "Ġ95": 5040,
      "ertain": 5041,
      "ĠIndust": 5042,
      "ĠUSA": 5043,
      "Ġbrigade": 5044,
      "helm": 5045,
      "heless": 5046,
      "Ġvisited": 5047,
      "Ġplanet": 5048,
      "ĠReception": 5049,
      "Ġfreeway": 5050,
      "ĠTownsend": 5051,
      "Ġseems": 5052,
      "Ġinjury": 5053,
      "Ġnominated": 5054,
      "Ġdropped": 5055,
      "Ġeconomic": 5056,
      "Ġdocument": 5057,
      "Ġplatform": 5058,
      "ĠBoston": 5059,
      "ĠBraathens": 5060,
      "ya": 5061,
      "rete": 5062,
      "Ġsail": 5063,
      "icro": 5064,
      "ĠTru": 5065,
      "ental": 5066,
      "ĠAD": 5067,
      "ĠRome": 5068,
      "ulate": 5069,
      "Ġridge": 5070,
      "Ġsend": 5071,
      "Ġcontaining": 5072,
      "ĠAlabama": 5073,
      "Ġ600": 5074,
      "Ġremix": 5075,
      "Ġcolor": 5076,
      "Ġtherefore": 5077,
      "azz": 5078,
      "Ġstudent": 5079,
      "ĠOrig": 5080,
      "Ġdeliver": 5081,
      "Ġpitcher": 5082,
      "ĠMountain": 5083,
      "urban": 5084,
      "Ġgrowing": 5085,
      "auty": 5086,
      "Ġpoetry": 5087,
      "ĠApple": 5088,
      "Ġscholars": 5089,
      "ĠMeyerbeer": 5090,
      "ĠIllinois": 5091,
      "Mont": 5092,
      "aud": 5093,
      "Ã¨": 5094,
      "Ġfear": 5095,
      "Ġfix": 5096,
      "Ġmort": 5097,
      "ola": 5098,
      "ĠHorn": 5099,
      "ĠPublic": 5100,
      "ĠFre": 5101,
      "ĠGra": 5102,
      "ocated": 5103,
      "Ġshare": 5104,
      "Ġkg": 5105,
      "ĠVan": 5106,
      "ĠYank": 5107,
      "Ġweather": 5108,
      "Ġactors": 5109,
      "ĠLeg": 5110,
      "Ġdepth": 5111,
      "Ġ1984": 5112,
      "Ġ1947": 5113,
      "Ġ1972": 5114,
      "Ġresults": 5115,
      "ĠProv": 5116,
      "Ġspeak": 5117,
      "Ġmounted": 5118,
      "Ġmaintained": 5119,
      "Ġflying": 5120,
      "Although": 5121,
      "Ġnecessary": 5122,
      "Ġmultiple": 5123,
      "anasi": 5124,
      "ĠSeveral": 5125,
      "When": 5126,
      "mosp": 5127,
      "pass": 5128,
      "Ġhor": 5129,
      "ĠMel": 5130,
      "ĠMogadishu": 5131,
      "olved": 5132,
      "ivity": 5133,
      "ĠNight": 5134,
      "ĠGreek": 5135,
      "ĠUN": 5136,
      "ovic": 5137,
      "ipl": 5138,
      "Ġcontent": 5139,
      "Ġserve": 5140,
      "Ġfilmed": 5141,
      "ĠAsia": 5142,
      "Ġopin": 5143,
      "Ġstarts": 5144,
      "arnia": 5145,
      "Ġstanding": 5146,
      "Ġhistorian": 5147,
      "Ġlooking": 5148,
      "Ġcouncil": 5149,
      "Ġknowledge": 5150,
      "Ġcurrently": 5151,
      "ĠWalpole": 5152,
      "daen": 5153,
      "Ġlabel": 5154,
      "ĠForest": 5155,
      "By": 5156,
      "TC": 5157,
      "bl": 5158,
      "ridge": 5159,
      "Ġbul": 5160,
      "Ġboy": 5161,
      "Ġpict": 5162,
      "ĠTessa": 5163,
      "ayer": 5164,
      "thur": 5165,
      "Ġven": 5166,
      "alls": 5167,
      "Ġexped": 5168,
      "Ġbelong": 5169,
      "Ġguest": 5170,
      "Ġphil": 5171,
      "Ġboat": 5172,
      "ĠWilliams": 5173,
      "Ġreligion": 5174,
      "Ġvocal": 5175,
      "Ġproblem": 5176,
      "Ġargued": 5177,
      "Ġindependent": 5178,
      "Ġversions": 5179,
      "Ġcontrolled": 5180,
      "Ġwebsite": 5181,
      "ĠArgent": 5182,
      "daenathus": 5183,
      "iot": 5184,
      "Ġtank": 5185,
      "Ġtanks": 5186,
      "ider": 5187,
      "ĠLike": 5188,
      "ĠJup": 5189,
      "Ġspect": 5190,
      "ordon": 5191,
      "Ġ61": 5192,
      "Ġ72": 5193,
      "Ġassass": 5194,
      "Ġ1989": 5195,
      "Ġsupporting": 5196,
      "Ġelement": 5197,
      "Ġsettlement": 5198,
      "Ġanimal": 5199,
      "ĠOffice": 5200,
      "Ġrejected": 5201,
      "Following": 5202,
      "och": 5203,
      "iner": 5204,
      "edar": 5205,
      "Ġfolk": 5206,
      "Ġham": 5207,
      "ĠTim": 5208,
      "ĠTintin": 5209,
      "enture": 5210,
      "Ġnest": 5211,
      "iments": 5212,
      "ĠDream": 5213,
      "ĠLew": 5214,
      "ĠGulf": 5215,
      "umes": 5216,
      "agement": 5217,
      "Ġseg": 5218,
      "ĠKar": 5219,
      "iance": 5220,
      "Ġarrang": 5221,
      "Ġnews": 5222,
      "Ġretired": 5223,
      "Ġwrites": 5224,
      "Ġlands": 5225,
      "ĠMean": 5226,
      "Ġexplained": 5227,
      "Ġmedical": 5228,
      "ĠTeam": 5229,
      "Ġavoid": 5230,
      "ĠPerÃ³n": 5231,
      "Ġcollabor": 5232,
      "Ġincreasingly": 5233,
      "Ġtemperature": 5234,
      "Ġfle": 5235,
      "Ġbit": 5236,
      "ĠRet": 5237,
      "resp": 5238,
      "Ġrival": 5239,
      "There": 5240,
      "ĠThough": 5241,
      "Ġoverl": 5242,
      "insula": 5243,
      "ĠReview": 5244,
      "Ġ1969": 5245,
      "Ġreflect": 5246,
      "ĠAirport": 5247,
      "Ġstrik": 5248,
      "ĠPalest": 5249,
      "ographer": 5250,
      "eed": 5251,
      "arian": 5252,
      "ĠMur": 5253,
      "ĠMend": 5254,
      "ĠBir": 5255,
      "Ġge": 5256,
      "ĠRos": 5257,
      "ĠFant": 5258,
      "ĠEll": 5259,
      "ĠEven": 5260,
      "Ġrisk": 5261,
      "ĠUs": 5262,
      "Ġkakapo": 5263,
      "ĠChild": 5264,
      "Ġunique": 5265,
      "ĠAnth": 5266,
      "Ġ96": 5267,
      "velopment": 5268,
      "Ġ130": 5269,
      "Ġbattalions": 5270,
      "Ġguard": 5271,
      "ĠGuard": 5272,
      "ĠMinister": 5273,
      "ĠEntertain": 5274,
      "Wh": 5275,
      "haps": 5276,
      "oe": 5277,
      "upp": 5278,
      "Ġcadmium": 5279,
      "stream": 5280,
      "ĠMD": 5281,
      "ĠBecause": 5282,
      "etr": 5283,
      "imore": 5284,
      "ĠDar": 5285,
      "ĠFinkelstein": 5286,
      "Ġring": 5287,
      "Ġresemb": 5288,
      "Ġperfect": 5289,
      "Ġscience": 5290,
      "ĠItaly": 5291,
      "ĠAlbum": 5292,
      "awa": 5293,
      "Ġconsp": 5294,
      "Ġflag": 5295,
      "Ġsynt": 5296,
      "Ġsetting": 5297,
      "ĠZhou": 5298,
      "Ġsingles": 5299,
      "ĠCarl": 5300,
      "ĠAllied": 5301,
      "Ġprotest": 5302,
      "ancing": 5303,
      "Ġbelieve": 5304,
      "ĠExp": 5305,
      "ĠSystem": 5306,
      "Ġconnected": 5307,
      "Ġgrowth": 5308,
      "Ġemployed": 5309,
      "Ġfailure": 5310,
      "Ġaccompan": 5311,
      "Ġpolicy": 5312,
      "ĠBowl": 5313,
      "Ġweakened": 5314,
      "Ġbasketball": 5315,
      "Ġscheduled": 5316,
      "ĠJupiter": 5317,
      "cel": 5318,
      "heastern": 5319,
      "inity": 5320,
      "Ġfung": 5321,
      "Ġbass": 5322,
      "add": 5323,
      "Ġherself": 5324,
      "Ġ73": 5325,
      "Ġ81": 5326,
      "Ġcolony": 5327,
      "Ġends": 5328,
      "Ġsubmar": 5329,
      "Ġincident": 5330,
      "Ġmatter": 5331,
      "ĠConstant": 5332,
      "Ġfamilies": 5333,
      "Ġcampus": 5334,
      "Ġideas": 5335,
      "ĠEva": 5336,
      "Ġentirely": 5337,
      "Ġsubsequent": 5338,
      "eer": 5339,
      "onent": 5340,
      "Ġcust": 5341,
      "Ġdated": 5342,
      "ĠFey": 5343,
      "ifying": 5344,
      "ĠInstitute": 5345,
      "ips": 5346,
      "Ġunf": 5347,
      "Ġcompar": 5348,
      "Ġcontained": 5349,
      "Ġcontributed": 5350,
      "izations": 5351,
      "Ġdescend": 5352,
      "Ġ85": 5353,
      "ĠOnly": 5354,
      "Ġsinging": 5355,
      "ĠConference": 5356,
      "Ġfamous": 5357,
      "Ġbelief": 5358,
      "Ġjoin": 5359,
      "Ġsolo": 5360,
      "Ġvalue": 5361,
      "ĠSlam": 5362,
      "Ġcreating": 5363,
      "Ġwooden": 5364,
      "Ġparticipated": 5365,
      "Station": 5366,
      "ĠCongress": 5367,
      "ĠVictoria": 5368,
      "Ġsenior": 5369,
      "Le": 5370,
      "bo": 5371,
      "render": 5372,
      "Ġwitness": 5373,
      "itable": 5374,
      "ĠSub": 5375,
      "ĠSpr": 5376,
      "aming": 5377,
      "ĠDutch": 5378,
      "ĠWrit": 5379,
      "ĠLine": 5380,
      "Ġanalysis": 5381,
      "ĠOdaenathus": 5382,
      "Ġrise": 5383,
      "Ġchose": 5384,
      "Ġchair": 5385,
      "ĠVen": 5386,
      "Ġ700": 5387,
      "ocked": 5388,
      "Ġopposed": 5389,
      "Ġsignificantly": 5390,
      "ĠPrem": 5391,
      "ĠPlayStation": 5392,
      "Ġliterature": 5393,
      "Ġpremi": 5394,
      "Ġbattery": 5395,
      "Ġprepared": 5396,
      "Ġseventh": 5397,
      "Ġbottom": 5398,
      "ĠNesbitt": 5399,
      "According": 5400,
      "MA": 5401,
      "ao": 5402,
      "cers": 5403,
      "kare": 5404,
      "load": 5405,
      "ading": 5406,
      "ĠMong": 5407,
      "ĠBan": 5408,
      "ĠBas": 5409,
      "uting": 5410,
      "ĠNorm": 5411,
      "ĠGard": 5412,
      "Ġunus": 5413,
      "phia": 5414,
      "ressive": 5415,
      "Ġtemnospondyl": 5416,
      "Ġanimals": 5417,
      "clusion": 5418,
      "ĠScottish": 5419,
      "Ġfrequently": 5420,
      "ĠAdmiral": 5421,
      "Ġsoutheast": 5422,
      "ĠCeres": 5423,
      "adelphia": 5424,
      "ĠOmaha": 5425,
      "car": 5426,
      "sw": 5427,
      "Ã¶": 5428,
      "Ġaired": 5429,
      "Ġawards": 5430,
      "Ġswe": 5431,
      "stead": 5432,
      "ĠPress": 5433,
      "ĠDom": 5434,
      "ĠDest": 5435,
      "ĠWork": 5436,
      "ĠLis": 5437,
      "Ġshaped": 5438,
      "usted": 5439,
      "Ġroof": 5440,
      "issance": 5441,
      "Ġdefin": 5442,
      "ashion": 5443,
      "Ġdrive": 5444,
      "Ġroads": 5445,
      "Ġcommonly": 5446,
      "Ġpopularity": 5447,
      "Ġcollege": 5448,
      "Ġlosses": 5449,
      "Ġoccupied": 5450,
      "ĠCardiff": 5451,
      "Ġinnings": 5452,
      "Ġunsu": 5453,
      "ĠOxford": 5454,
      "atus": 5455,
      "Ġbud": 5456,
      "Ġmist": 5457,
      "Ġdress": 5458,
      "ĠTro": 5459,
      "ĠSR": 5460,
      "ĠCole": 5461,
      "ĠBart": 5462,
      "ĠBishop": 5463,
      "ĠIron": 5464,
      "ĠFA": 5465,
      "ĠGordon": 5466,
      "ĠJon": 5467,
      "ĠJourn": 5468,
      "ĠERA": 5469,
      "ĠStan": 5470,
      "ĠVill": 5471,
      "Ġ800": 5472,
      "ansas": 5473,
      "ĠShort": 5474,
      "Ġtrav": 5475,
      "Ġ1981": 5476,
      "ulls": 5477,
      "ructure": 5478,
      "Ġ1918": 5479,
      "Ġsouthwest": 5480,
      "Ġsystems": 5481,
      "Ġparalle": 5482,
      "Ġcriticism": 5483,
      "Ġsuccessfully": 5484,
      "Ġrecognized": 5485,
      "Ġproperty": 5486,
      "Ġexperienced": 5487,
      "Ġsupplies": 5488,
      "ĠAddition": 5489,
      "iable": 5490,
      "jo": 5491,
      "Äĩ": 5492,
      "erts": 5493,
      "Ġfresh": 5494,
      "isers": 5495,
      "Ġreform": 5496,
      "lywood": 5497,
      "ety": 5498,
      "ĠHart": 5499,
      "rait": 5500,
      "Ġatmosp": 5501,
      "ersey": 5502,
      "ĠEach": 5503,
      "Ġvirt": 5504,
      "Ġrating": 5505,
      "Ġspring": 5506,
      "Ġagricult": 5507,
      "Ġ98": 5508,
      "Ġremn": 5509,
      "Ġsevere": 5510,
      "Ġminer": 5511,
      "Ġpublication": 5512,
      "Ġserving": 5513,
      "Ġdeaths": 5514,
      "Ġpainting": 5515,
      "Ġdeclined": 5516,
      "ĠImperial": 5517,
      "Ġfacilities": 5518,
      "ihanna": 5519,
      "Ġbriefly": 5520,
      "Ġpurchased": 5521,
      "ĠDemocr": 5522,
      "ez": 5523,
      "hat": 5524,
      "zo": 5525,
      "Ġtheory": 5526,
      "Ġselling": 5527,
      "ato": 5528,
      "Ġfict": 5529,
      "ano": 5530,
      "Ġpet": 5531,
      "Ġdim": 5532,
      "Ġdates": 5533,
      "Ġec": 5534,
      "ĠMov": 5535,
      "Ġbey": 5536,
      "ĠRog": 5537,
      "unicip": 5538,
      "ĠDis": 5539,
      "Ġcomes": 5540,
      "Ġchoice": 5541,
      "ĠKey": 5542,
      "ĠChap": 5543,
      "Ġ59": 5544,
      "Ġrecently": 5545,
      "wealth": 5546,
      "Ġteacher": 5547,
      "Ġ77": 5548,
      "Ġsecondary": 5549,
      "Ġ1943": 5550,
      "Ġdescription": 5551,
      "Ġ1968": 5552,
      "Ġextensive": 5553,
      "Ġoccas": 5554,
      "Ġeditor": 5555,
      "Ġeffective": 5556,
      "ĠMounted": 5557,
      "ĠImag": 5558,
      "Ġpoems": 5559,
      "Ġtechnique": 5560,
      "Ġsumm": 5561,
      "ĠSwed": 5562,
      "Ġnegot": 5563,
      "Ġslowly": 5564,
      "Ġregarded": 5565,
      "ibrary": 5566,
      "ĠJeff": 5567,
      "Ġtheat": 5568,
      "eratops": 5569,
      "edkare": 5570,
      "Ġcited": 5571,
      "Ġfan": 5572,
      "iced": 5573,
      "ĠSund": 5574,
      "ĠSky": 5575,
      "ĠAst": 5576,
      "Ġgas": 5577,
      "Ġgives": 5578,
      "Ġstations": 5579,
      "Ġstages": 5580,
      "ĠRail": 5581,
      "ules": 5582,
      "Ġnotable": 5583,
      "aph": 5584,
      "Ġarms": 5585,
      "ube": 5586,
      "Ġcollected": 5587,
      "Ġexpanded": 5588,
      "Ġcreation": 5589,
      "espread": 5590,
      "Ġturns": 5591,
      "Ġarmor": 5592,
      "Ġfarm": 5593,
      "ĠLester": 5594,
      "Ġsteel": 5595,
      "ĠPhiladelphia": 5596,
      "ĠCoast": 5597,
      "ĠDuMont": 5598,
      "ĠMartin": 5599,
      "Ġdegree": 5600,
      "Ġaspects": 5601,
      "ĠRevolution": 5602,
      "ĠEntertainment": 5603,
      "Ġbeyond": 5604,
      "ML": 5605,
      "iences": 5606,
      "rine": 5607,
      "ycl": 5608,
      "Ġcricket": 5609,
      "Ġfur": 5610,
      "Ġfox": 5611,
      "ĠMore": 5612,
      "ĠRy": 5613,
      "ĠDun": 5614,
      "ĠDue": 5615,
      "Ġisol": 5616,
      "ĠNative": 5617,
      "Ġru": 5618,
      "Ġexecutive": 5619,
      "Ġ66": 5620,
      "Ġ82": 5621,
      "Ġ1965": 5622,
      "Ġfinals": 5623,
      "Ġsimple": 5624,
      "Ġ1939": 5625,
      "Ġprotection": 5626,
      "Ġworldwide": 5627,
      "Ġengaged": 5628,
      "Ġcells": 5629,
      "Ġsemi": 5630,
      "Ġsilver": 5631,
      "ĠSummer": 5632,
      "ĠBaltimore": 5633,
      "ias": 5634,
      "uate": 5635,
      "Ġtall": 5636,
      "inate": 5637,
      "Ġbid": 5638,
      "Ġpul": 5639,
      "asters": 5640,
      "Ġdaily": 5641,
      "ĠSarnia": 5642,
      "ĠAp": 5643,
      "standing": 5644,
      "Ġeth": 5645,
      "ĠMod": 5646,
      "Ġgain": 5647,
      "ĠRif": 5648,
      "ager": 5649,
      "Ġrac": 5650,
      "Ġseat": 5651,
      "Ġ71": 5652,
      "Ġcoal": 5653,
      "Ġphase": 5654,
      "ĠAdv": 5655,
      "Ġtrip": 5656,
      "Ġallows": 5657,
      "Ġoldest": 5658,
      "Ġarrival": 5659,
      "Ġcrossing": 5660,
      "Ġpromotion": 5661,
      "white": 5662,
      "Ġtreatment": 5663,
      "Ġbillion": 5664,
      "ĠEgyptian": 5665,
      "ĠVaranasi": 5666,
      "Ġclean": 5667,
      "ĠRAAF": 5668,
      "ĠArea": 5669,
      "Ġresponded": 5670,
      "ĠThunderbird": 5671,
      "Ġunsuccess": 5672,
      "ca": 5673,
      "fort": 5674,
      "set": 5675,
      "ini": 5676,
      "reets": 5677,
      "itan": 5678,
      "esh": 5679,
      "Ġmales": 5680,
      "Ġdrop": 5681,
      "ĠCle": 5682,
      "eton": 5683,
      "idges": 5684,
      "imet": 5685,
      "ĠTheatre": 5686,
      "ĠHib": 5687,
      "Ġheard": 5688,
      "ĠRihanna": 5689,
      "ĠNever": 5690,
      "rak": 5691,
      "aved": 5692,
      "illo": 5693,
      "ogen": 5694,
      "ieval": 5695,
      "Ġdecades": 5696,
      "iversary": 5697,
      "Ġdistrict": 5698,
      "Ġ1914": 5699,
      "Ġprotect": 5700,
      "Ġparliament": 5701,
      "Ġdelay": 5702,
      "Ġfinds": 5703,
      "graded": 5704,
      "Ġimproved": 5705,
      "ĠPeople": 5706,
      "ĠGovernor": 5707,
      "ĠHelms": 5708,
      "Ġroughly": 5709,
      "Ġmolec": 5710,
      "Ġphilos": 5711,
      "Ġi": 5712,
      "rel": 5713,
      "itors": 5714,
      "ĠSAF": 5715,
      "ĠCD": 5716,
      "Ġeas": 5717,
      "lying": 5718,
      "ĠBand": 5719,
      "ivered": 5720,
      "ĠFu": 5721,
      "ĠFestival": 5722,
      "ĠNBA": 5723,
      "ĠLiber": 5724,
      "Ġ94": 5725,
      "Ġfilming": 5726,
      "Ġactress": 5727,
      "Ġaccident": 5728,
      "Ġ1946": 5729,
      "Ġdeveloping": 5730,
      "Ġheaded": 5731,
      "Ġrestaur": 5732,
      "Ġplanning": 5733,
      "Ġfinding": 5734,
      "Ġfocused": 5735,
      "ĠWilhelm": 5736,
      "Ġgradually": 5737,
      "Ġconverted": 5738,
      "ĠCommonwealth": 5739,
      "ĠLieutenant": 5740,
      "Ġhorses": 5741,
      "Ġbudget": 5742,
      "ĠSAFE": 5743,
      "OT": 5744,
      "eor": 5745,
      "rum": 5746,
      "Ġfat": 5747,
      "arp": 5748,
      "Ġmo": 5749,
      "Ġdance": 5750,
      "ĠMike": 5751,
      "ĠBru": 5752,
      "ĠHon": 5753,
      "ĠDown": 5754,
      "ĠDomin": 5755,
      "ĠJur": 5756,
      "ava": 5757,
      "ĠOh": 5758,
      "aka": 5759,
      "ĠStep": 5760,
      "Ġarc": 5761,
      "Ġintelligence": 5762,
      "ĠVideo": 5763,
      "assy": 5764,
      "Ġcenturies": 5765,
      "ĠOnce": 5766,
      "Ġcool": 5767,
      "Ġ110": 5768,
      "Ġ177": 5769,
      "Ġgovernor": 5770,
      "ĠDev": 5771,
      "Ġclassified": 5772,
      "Ġturning": 5773,
      "Ġexplos": 5774,
      "Ġsteam": 5775,
      "Ġwidespread": 5776,
      "ÃŃa": 5777,
      "Ġvolunte": 5778,
      "Ġexisting": 5779,
      "ĠBelg": 5780,
      "Ġcommissioned": 5781,
      "ĠWWE": 5782,
      "Ġstopped": 5783,
      "SB": 5784,
      "han": 5785,
      "ym": 5786,
      "Ġtail": 5787,
      "Ġaim": 5788,
      "inj": 5789,
      "Ġouter": 5790,
      "ati": 5791,
      "ĠTen": 5792,
      "ĠAthlet": 5793,
      "Ġnor": 5794,
      "ĠMot": 5795,
      "urches": 5796,
      "ĠHung": 5797,
      "Ġstreet": 5798,
      "ĠFive": 5799,
      "anda": 5800,
      "ifically": 5801,
      "Ġarran": 5802,
      "phib": 5803,
      "Ġprefer": 5804,
      "Ġneither": 5805,
      "icted": 5806,
      "Ġproducers": 5807,
      "Ġreceiving": 5808,
      "Ġ1971": 5809,
      "Ġconcrete": 5810,
      "Ġdelivered": 5811,
      "Ġeyes": 5812,
      "Ġbegun": 5813,
      "Ġburns": 5814,
      "Ġcolonial": 5815,
      "ĠDaniel": 5816,
      "ĠCroatia": 5817,
      "For": 5818,
      "lines": 5819,
      "Ġsave": 5820,
      "Ġcraft": 5821,
      "rog": 5822,
      "Ġdial": 5823,
      "ĠCre": 5824,
      "Ġegg": 5825,
      "ĠId": 5826,
      "Ġstret": 5827,
      "ĠRod": 5828,
      "ĠLuc": 5829,
      "rier": 5830,
      "Ġdeities": 5831,
      "Ġnote": 5832,
      "Ġcontrib": 5833,
      "Ġoverse": 5834,
      "ropol": 5835,
      "Ġundert": 5836,
      "Ġsole": 5837,
      "ifications": 5838,
      "Ġ1975": 5839,
      "Ġfinish": 5840,
      "Ġcapable": 5841,
      "Ġbreeding": 5842,
      "ĠBroad": 5843,
      "Ġfemales": 5844,
      "Ġvolume": 5845,
      "Ġnegative": 5846,
      "Ġdominated": 5847,
      "Ġsculpture": 5848,
      "iations": 5849,
      "yles": 5850,
      "Ġice": 5851,
      "erc": 5852,
      "Ġfellow": 5853,
      "ĠMen": 5854,
      "Ġgreen": 5855,
      "ĠDod": 5856,
      "Ġexclus": 5857,
      "Ġresident": 5858,
      "Ġreserv": 5859,
      "ĠAlso": 5860,
      "weight": 5861,
      "Ġsubt": 5862,
      "Ġexpress": 5863,
      "Ġdistingu": 5864,
      "Ġanything": 5865,
      "ĠDevelopment": 5866,
      "Ġlasted": 5867,
      "Ġvisual": 5868,
      "ĠAndy": 5869,
      "ĠSteve": 5870,
      "Ġdrawn": 5871,
      "Ġintroduction": 5872,
      "ĠMagazine": 5873,
      "ĠMcCall": 5874,
      "Ġescape": 5875,
      "Ġindependence": 5876,
      "ĠCambod": 5877,
      "Ġvehicles": 5878,
      "Ġaccompanied": 5879,
      "He": 5880,
      "kins": 5881,
      "Ã¤": 5882,
      "Ġtend": 5883,
      "Ġtrying": 5884,
      "rell": 5885,
      "arm": 5886,
      "iling": 5887,
      "Ġneck": 5888,
      "ĠMir": 5889,
      "ĠBase": 5890,
      "ĠBoard": 5891,
      "ĠWind": 5892,
      "andy": 5893,
      "ĠObs": 5894,
      "Ġrit": 5895,
      "ections": 5896,
      "sea": 5897,
      "Ġcomputer": 5898,
      "ĠAlf": 5899,
      "rence": 5900,
      "ropri": 5901,
      "Ġdecre": 5902,
      "Ġcharges": 5903,
      "amese": 5904,
      "Ġadding": 5905,
      "Ġ160": 5906,
      "ĠAmong": 5907,
      "restling": 5908,
      "ĠBarb": 5909,
      "Ġagreement": 5910,
      "Ġholding": 5911,
      "ĠTorres": 5912,
      "Ġadapted": 5913,
      "Ġnormal": 5914,
      "ĠDougl": 5915,
      "Ġpaintings": 5916,
      "Ġtree": 5917,
      "Ġfuel": 5918,
      "Ġbought": 5919,
      "ingly": 5920,
      "Ġmig": 5921,
      "Ġdata": 5922,
      "Ġhired": 5923,
      "ĠCold": 5924,
      "utation": 5925,
      "ĠFriend": 5926,
      "ĠLu": 5927,
      "ĠLy": 5928,
      "ĠGi": 5929,
      "ĠGreg": 5930,
      "ĠJac": 5931,
      "ewhere": 5932,
      "essed": 5933,
      "Ġnothing": 5934,
      "Ġrose": 5935,
      "angers": 5936,
      "ilding": 5937,
      "ĠMario": 5938,
      "Ġ1966": 5939,
      "Ġopera": 5940,
      "Ġstrateg": 5941,
      "ĠProject": 5942,
      "Ġserves": 5943,
      "Ġpossibility": 5944,
      "Ġhumans": 5945,
      "Ġviewed": 5946,
      "ographic": 5947,
      "Ġcombination": 5948,
      "Ġsurviv": 5949,
      "Ġsurvey": 5950,
      "Ġcrossed": 5951,
      "Ġencoura": 5952,
      "Ġrebu": 5953,
      "Ġviolence": 5954,
      "Ġtells": 5955,
      "ĠMeanwhile": 5956,
      "Ġfictional": 5957,
      "It": 5958,
      "come": 5959,
      "cription": 5960,
      "Ġtrou": 5961,
      "Ġfaith": 5962,
      "Ġlabor": 5963,
      "omp": 5964,
      "ĠMu": 5965,
      "ĠHan": 5966,
      "ĠHard": 5967,
      "ĠWall": 5968,
      "opes": 5969,
      "ighter": 5970,
      "ĠChart": 5971,
      "Ġcomposition": 5972,
      "aret": 5973,
      "Ġ87": 5974,
      "icks": 5975,
      "Ġunderground": 5976,
      "Ġacres": 5977,
      "Ġtrain": 5978,
      "Ġ164": 5979,
      "Ġ1945": 5980,
      "Ġdisturb": 5981,
      "ĠColor": 5982,
      "Ġ1916": 5983,
      "Ġcaptain": 5984,
      "Ġimportance": 5985,
      "Ġsurvived": 5986,
      "Ġglob": 5987,
      "ĠKeats": 5988,
      "Ġclosely": 5989,
      "Ġexistence": 5990,
      "Ġreasons": 5991,
      "borough": 5992,
      "Ġcalc": 5993,
      "ĠVietnamese": 5994,
      "ĠCardinal": 5995,
      "Ġrif": 5996,
      "Ġlearned": 5997,
      "ĠLewis": 5998,
      "respond": 5999,
      "aver": 6000,
      "aire": 6001,
      "then": 6002,
      "Ġcem": 6003,
      "Ġthing": 6004,
      "Ġstream": 6005,
      "ĠPers": 6006,
      "ĠNH": 6007,
      "ĠJud": 6008,
      "opher": 6009,
      "Ġpros": 6010,
      "abil": 6011,
      "ĠUB": 6012,
      "rupt": 6013,
      "Ġresist": 6014,
      "Ġperhaps": 6015,
      "Ġconsists": 6016,
      "Ġdecline": 6017,
      "ooking": 6018,
      "Ġsubstant": 6019,
      "Ġ1973": 6020,
      "Ġcarry": 6021,
      "Ġinstruct": 6022,
      "Ġprovides": 6023,
      "Ġowners": 6024,
      "ĠJuan": 6025,
      "Ġ1915": 6026,
      "Ġinvolvement": 6027,
      "ĠSongs": 6028,
      "Ġcastle": 6029,
      "ĠIslands": 6030,
      "Ġsections": 6031,
      "Ġintersection": 6032,
      "ĠColonel": 6033,
      "Ġhydro": 6034,
      "While": 6035,
      "Sh": 6036,
      "Ġ#": 6037,
      "Ġaer": 6038,
      "erted": 6039,
      "Ġwins": 6040,
      "Ġopt": 6041,
      "ĠSound": 6042,
      "ĠCub": 6043,
      "ĠBor": 6044,
      "iration": 6045,
      "irls": 6046,
      "uli": 6047,
      "illing": 6048,
      "Ġchorus": 6049,
      "ĠUTC": 6050,
      "Ġroutes": 6051,
      "Ġagent": 6052,
      "Ġ69": 6053,
      "Ġdecor": 6054,
      "Ġdefined": 6055,
      "Ġmush": 6056,
      "Ġdoor": 6057,
      "Ġemp": 6058,
      "Ġperforming": 6059,
      "Ġdidn": 6060,
      "Ġairport": 6061,
      "ĠCommittee": 6062,
      "Ġdetails": 6063,
      "Ġcommanded": 6064,
      "Ġstoryline": 6065,
      "Ġprograms": 6066,
      "Ġcougar": 6067,
      "Ġhousehold": 6068,
      "Ġaccompl": 6069,
      "ĠHamels": 6070,
      "Ġmissing": 6071,
      "ĠStudios": 6072,
      "Ġshooting": 6073,
      "Ġnucleus": 6074,
      "Ġenjoyed": 6075,
      "ĠDjedkare": 6076,
      "sych": 6077,
      "ĠInnis": 6078,
      "ĠApplewhite": 6079,
      "chen": 6080,
      "oen": 6081,
      "Ġster": 6082,
      "Ġbats": 6083,
      "Ġhill": 6084,
      "ĠType": 6085,
      "eman": 6086,
      "Ġwhy": 6087,
      "ĠLow": 6088,
      "Ġitems": 6089,
      "sey": 6090,
      "Ġenl": 6091,
      "Ġ63": 6092,
      "Ġtransform": 6093,
      "Ġlongest": 6094,
      "Ġ1974": 6095,
      "Ġ1978": 6096,
      "Ġ1967": 6097,
      "Ġlanded": 6098,
      "ĠWhat": 6099,
      "Ġ1952": 6100,
      "Ġ1919": 6101,
      "ĠProduction": 6102,
      "Ġevening": 6103,
      "Ġsurviving": 6104,
      "Ġlaws": 6105,
      "Ġmassive": 6106,
      "Ġruled": 6107,
      "ĠMcCart": 6108,
      "onstruction": 6109,
      "Ġarchaeological": 6110,
      "onnaissance": 6111,
      "Ġconsisting": 6112,
      "hetic": 6113,
      "Ġdrama": 6114,
      "Ġpurpose": 6115,
      "ershaw": 6116,
      "Ġathletes": 6117,
      "Ġrepeated": 6118,
      "Ġtemnospondyls": 6119,
      "ĠDouglas": 6120,
      "AA": 6121,
      "hm": 6122,
      "war": 6123,
      "Å¡": 6124,
      "Ġáĥ": 6125,
      "Ġsle": 6126,
      "Ġsom": 6127,
      "Ġways": 6128,
      "itiz": 6129,
      "Ġcaught": 6130,
      "Ġfirm": 6131,
      "Ġfashion": 6132,
      "acity": 6133,
      "ĠHaven": 6134,
      "ĠRidge": 6135,
      "ĠInstead": 6136,
      "ĠStadium": 6137,
      "Ġleaves": 6138,
      "Ġattached": 6139,
      "Ġdecade": 6140,
      "ĠMarc": 6141,
      "ĠMarines": 6142,
      "ĠArthur": 6143,
      "Ġinterior": 6144,
      "Ġinterchange": 6145,
      "ĠLee": 6146,
      "Ġcalls": 6147,
      "ĠJoe": 6148,
      "Ġ1976": 6149,
      "Ġ250": 6150,
      "Ġpropos": 6151,
      "Ġislands": 6152,
      "ĠCrown": 6153,
      "ĠBraz": 6154,
      "Ġcorrespond": 6155,
      "ĠCommander": 6156,
      "ĠWalter": 6157,
      "Ġearthqu": 6158,
      "Ġdeployed": 6159,
      "ĠToday": 6160,
      "Ġsynthes": 6161,
      "gers": 6162,
      "vis": 6163,
      "Ġtomb": 6164,
      "Ġmemorial": 6165,
      "Ġdrew": 6166,
      "entially": 6167,
      "ĠSus": 6168,
      "ĠAri": 6169,
      "Ġlane": 6170,
      "imeter": 6171,
      "Ġbeach": 6172,
      "uma": 6173,
      "iful": 6174,
      "Ġcontest": 6175,
      "Ġassemb": 6176,
      "Ġ175": 6177,
      "Ġmoder": 6178,
      "Ġsentence": 6179,
      "Ġviews": 6180,
      "Ġmyth": 6181,
      "ĠTrack": 6182,
      "Äģda": 6183,
      "Ġsettlers": 6184,
      "Ġrenamed": 6185,
      "Ġpenal": 6186,
      "Ġsector": 6187,
      "Ġpilot": 6188,
      "Ġopportunity": 6189,
      "Ġdissipated": 6190,
      "Ġpermanent": 6191,
      "GN": 6192,
      "ii": 6193,
      "lik": 6194,
      "à¸": 6195,
      "err": 6196,
      "Ġcateg": 6197,
      "rot": 6198,
      "icop": 6199,
      "amin": 6200,
      "ĠBaby": 6201,
      "etery": 6202,
      "iminal": 6203,
      "ĠRon": 6204,
      "ĠRel": 6205,
      "ĠRay": 6206,
      "ĠNap": 6207,
      "osa": 6208,
      "Ġrural": 6209,
      "Ġselect": 6210,
      "apes": 6211,
      "iege": 6212,
      "achus": 6213,
      "Ġ68": 6214,
      "Ġsecure": 6215,
      "ĠArts": 6216,
      "Ġmoves": 6217,
      "Ġpopulations": 6218,
      "ĠBrig": 6219,
      "Ġ1917": 6220,
      "Ġ1936": 6221,
      "Ġopposition": 6222,
      "ĠAbu": 6223,
      "Ġdigital": 6224,
      "Ġsymbol": 6225,
      "ĠFrancisc": 6226,
      "edding": 6227,
      "Ġconspir": 6228,
      "la": 6229,
      "yson": 6230,
      "eda": 6231,
      "Ġfilled": 6232,
      "isy": 6233,
      "Ġha": 6234,
      "ĠSnow": 6235,
      "Ġones": 6236,
      "Ġstore": 6237,
      "ĠRol": 6238,
      "ĠRick": 6239,
      "Ġsufficient": 6240,
      "Ġcho": 6241,
      "Ġchurches": 6242,
      "ĠKenn": 6243,
      "elli": 6244,
      "Ġimpr": 6245,
      "Ġcommittee": 6246,
      "iously": 6247,
      "Ġknew": 6248,
      "ĠLeon": 6249,
      "Ġsupposed": 6250,
      "Ġlocations": 6251,
      "Ġinvited": 6252,
      "Ġexpans": 6253,
      "Ġ1979": 6254,
      "Ġprotagon": 6255,
      "Ġtowns": 6256,
      "Ġconvection": 6257,
      "Ġskin": 6258,
      "Ġassociation": 6259,
      "Ġmissions": 6260,
      "ĠGolden": 6261,
      "Ġestablishment": 6262,
      "Ġjourney": 6263,
      "Ġderived": 6264,
      "Ġadministration": 6265,
      "Ġbenef": 6266,
      "ĠTurkish": 6267,
      "ĠCrazy": 6268,
      "RE": 6269,
      "urop": 6270,
      "Ġton": 6271,
      "Ġsun": 6272,
      "Ġsort": 6273,
      "atch": 6274,
      "Ġbranch": 6275,
      "Ġdry": 6276,
      "ĠChel": 6277,
      "elve": 6278,
      "uration": 6279,
      "iders": 6280,
      "usal": 6281,
      "ĠHor": 6282,
      "ĠRow": 6283,
      "Ġconference": 6284,
      "ĠWin": 6285,
      "iston": 6286,
      "Ġshared": 6287,
      "Ġyouth": 6288,
      "ĠChief": 6289,
      "okes": 6290,
      "Ġrot": 6291,
      "ĠAlbert": 6292,
      "Ġknots": 6293,
      "ublin": 6294,
      "Ġsurrender": 6295,
      "ĠScience": 6296,
      "Ġ1948": 6297,
      "Ġobt": 6298,
      "ĠConn": 6299,
      "ĠSpace": 6300,
      "Ġfinishing": 6301,
      "Ġproviding": 6302,
      "ipping": 6303,
      "Ġreplace": 6304,
      "Ġreplacement": 6305,
      "Ġgreatly": 6306,
      "Ġspeaking": 6307,
      "Ġclubs": 6308,
      "idden": 6309,
      "Ġcoastal": 6310,
      "ĠEmperor": 6311,
      "Ġregarding": 6312,
      "ĠHollywood": 6313,
      "Ġeconomy": 6314,
      "Ġdepicted": 6315,
      "Ġapplied": 6316,
      "Ġdynasty": 6317,
      "ĠSpecial": 6318,
      "Ġsucceeded": 6319,
      "Ġarticle": 6320,
      "vey": 6321,
      "Ġign": 6322,
      "Ġtied": 6323,
      "Ġtable": 6324,
      "Ġsan": 6325,
      "Ġfer": 6326,
      "Ġfil": 6327,
      "Ġdating": 6328,
      "ilton": 6329,
      "ĠSanta": 6330,
      "ĠAge": 6331,
      "stances": 6332,
      "Ġla": 6333,
      "ĠCook": 6334,
      "acon": 6335,
      "ĠDet": 6336,
      "ĠFree": 6337,
      "ĠJones": 6338,
      "Ġspons": 6339,
      "apers": 6340,
      "Ġjoint": 6341,
      "aws": 6342,
      "Ġdeck": 6343,
      "ĠMarsh": 6344,
      "Ġvert": 6345,
      "Ġproducing": 6346,
      "Ġsoft": 6347,
      "Ġ1982": 6348,
      "Ġsuccessor": 6349,
      "Ġantimony": 6350,
      "Ġhistoric": 6351,
      "regon": 6352,
      "Ġglass": 6353,
      "Ġcertified": 6354,
      "chers": 6355,
      "Ġzone": 6356,
      "Ġmotion": 6357,
      "Ġremainder": 6358,
      "ĠRadio": 6359,
      "Ġconsiderable": 6360,
      "Ġacquired": 6361,
      "ĠAttorney": 6362,
      "ĠBono": 6363,
      "ĠColorado": 6364,
      "AG": 6365,
      "From": 6366,
      "SA": 6367,
      "die": 6368,
      "oly": 6369,
      "rant": 6370,
      "ture": 6371,
      "Ġurban": 6372,
      "Ġcrop": 6373,
      "Ġhyp": 6374,
      "lythe": 6375,
      "ĠBern": 6376,
      "ĠIra": 6377,
      "ĠNathan": 6378,
      "ĠLate": 6379,
      "ĠGab": 6380,
      "agre": 6381,
      "ĠOregon": 6382,
      "Ġchampion": 6383,
      "Ġexact": 6384,
      "pty": 6385,
      "ĠKang": 6386,
      "assador": 6387,
      "phy": 6388,
      "ĠYe": 6389,
      "Ġunderw": 6390,
      "Ġflu": 6391,
      "Ġentering": 6392,
      "anny": 6393,
      "Ġreceive": 6394,
      "Ġhelicop": 6395,
      "Ġcourts": 6396,
      "engers": 6397,
      "Ġhistorians": 6398,
      "Ġfavour": 6399,
      "Ġbaseball": 6400,
      "Ġassistance": 6401,
      "Ġchapel": 6402,
      "Ġconcerns": 6403,
      "ĠDoctor": 6404,
      "Ã¡nh": 6405,
      "ĠDirector": 6406,
      "ĠBrazil": 6407,
      "host": 6408,
      "Ġaware": 6409,
      "Ġmut": 6410,
      "ĠSi": 6411,
      "ĠSor": 6412,
      "idae": 6413,
      "Ġstem": 6414,
      "ĠFel": 6415,
      "ĠFamily": 6416,
      "ĠLife": 6417,
      "ĠJain": 6418,
      "rior": 6419,
      "ichol": 6420,
      "Ġchance": 6421,
      "Ġunp": 6422,
      "Ġarts": 6423,
      "ĠVol": 6424,
      "ranean": 6425,
      "Ġ58": 6426,
      "mann": 6427,
      "Ġcommit": 6428,
      "Ġ78": 6429,
      "Ġshel": 6430,
      "attle": 6431,
      "ĠAnton": 6432,
      "Ġtruth": 6433,
      "Ġprotected": 6434,
      "Ġiniti": 6435,
      "Ġspeech": 6436,
      "imental": 6437,
      "sequently": 6438,
      "ĠBarrow": 6439,
      "Ġtechnical": 6440,
      "Ġtechnology": 6441,
      "ĠEvita": 6442,
      "Ġgetting": 6443,
      "Ġfunding": 6444,
      "ĠMilitary": 6445,
      "ĠCroatian": 6446,
      "ĠMendes": 6447,
      "ĠSunday": 6448,
      "20": 6449,
      "break": 6450,
      "theless": 6451,
      "rets": 6452,
      "Ġod": 6453,
      "itled": 6454,
      "Ġcold": 6455,
      "Ġdru": 6456,
      "ĠMTV": 6457,
      "ĠDublin": 6458,
      "ĠFire": 6459,
      "ĠJay": 6460,
      "Ġcomic": 6461,
      "Ġvon": 6462,
      "Ġrub": 6463,
      "Ġplum": 6464,
      "ears": 6465,
      "Ġlegend": 6466,
      "Ġcloud": 6467,
      "Ġreserve": 6468,
      "Ġrob": 6469,
      "Ġteeth": 6470,
      "Ġ74": 6471,
      "ribed": 6472,
      "Ġflights": 6473,
      "Ġcolour": 6474,
      "Ġverte": 6475,
      "Ġacid": 6476,
      "Ġtransit": 6477,
      "Ġgoes": 6478,
      "Ġ1963": 6479,
      "ĠConst": 6480,
      "Ġattacking": 6481,
      "Ġtries": 6482,
      "Ġauthors": 6483,
      "Ġ1890": 6484,
      "ĠJamal": 6485,
      "ĠPremier": 6486,
      "ĠAdditionally": 6487,
      "Ġarranged": 6488,
      "ba": 6489,
      "edom": 6490,
      "aton": 6491,
      "Ġdog": 6492,
      "entions": 6493,
      "Ġlob": 6494,
      "eless": 6495,
      "ĠML": 6496,
      "ĠMid": 6497,
      "ĠHin": 6498,
      "ĠRox": 6499,
      "Ġaltar": 6500,
      "ĠNick": 6501,
      "ĠGram": 6502,
      "agn": 6503,
      "Ġvic": 6504,
      "Ġsud": 6505,
      "pton": 6506,
      "ells": 6507,
      "Ġresour": 6508,
      "ibbe": 6509,
      "aware": 6510,
      "Ġ89": 6511,
      "Ġmeets": 6512,
      "Ġfoundation": 6513,
      "Ġdowntown": 6514,
      "Ġdownload": 6515,
      "ĠIsab": 6516,
      "Ġ1953": 6517,
      "Ġcharacteristics": 6518,
      "encies": 6519,
      "Ġwatched": 6520,
      "Ġcorrect": 6521,
      "Ġliterary": 6522,
      "Ġdenied": 6523,
      "Ġancest": 6524,
      "ĠTransport": 6525,
      "Ġcontroversy": 6526,
      "Ġoccasionally": 6527,
      "Ġopinion": 6528,
      "ĠThunderbirds": 6529,
      "pson": 6530,
      "Ġtyphoon": 6531,
      "Ġcab": 6532,
      "Ġfair": 6533,
      "Ġfiring": 6534,
      "Ġdub": 6535,
      "ĠCop": 6536,
      "amy": 6537,
      "lyss": 6538,
      "ĠBlythe": 6539,
      "ĠIV": 6540,
      "Ġcong": 6541,
      "rake": 6542,
      "ĠJes": 6543,
      "agle": 6544,
      "ĠOffic": 6545,
      "Ġrich": 6546,
      "Ġchannel": 6547,
      "Ġ91": 6548,
      "ĠMaria": 6549,
      "Ġshowing": 6550,
      "Ġ1913": 6551,
      "ĠPhill": 6552,
      "Ġcapacity": 6553,
      "Ġtypical": 6554,
      "Ġterminus": 6555,
      "ivalent": 6556,
      "Ġpolitics": 6557,
      "Ġpitch": 6558,
      "ĠButler": 6559,
      "Ġvalley": 6560,
      "Ġstrengthen": 6561,
      "Ġchapter": 6562,
      "Ġimmig": 6563,
      "Ġexamples": 6564,
      "Ġdollar": 6565,
      "ĠHoward": 6566,
      "Ġpowers": 6567,
      "Ġsplit": 6568,
      "borne": 6569,
      "ĠAnthony": 6570,
      "ĠIraq": 6571,
      "aft": 6572,
      "nest": 6573,
      "Ġtal": 6574,
      "erick": 6575,
      "Ġmine": 6576,
      "state": 6577,
      "ĠCorn": 6578,
      "adow": 6579,
      "osis": 6580,
      "ĠWars": 6581,
      "ĠWalk": 6582,
      "ĠGA": 6583,
      "Ġexerc": 6584,
      "onder": 6585,
      "Ġjack": 6586,
      "Ġcommemor": 6587,
      "Ġdepartment": 6588,
      "Ġreputation": 6589,
      "Ġgeneration": 6590,
      "Ġreferences": 6591,
      "Ġeverything": 6592,
      "Ġfields": 6593,
      "iece": 6594,
      "Ġfacing": 6595,
      "Ġ1880": 6596,
      "Ġcircum": 6597,
      "Ġlaunch": 6598,
      "Ġresponsibility": 6599,
      "Ġmotor": 6600,
      "Ġmaintain": 6601,
      "guan": 6602,
      "ĠCharlie": 6603,
      "ĠAlexander": 6604,
      "Ġextrem": 6605,
      "Ġsafety": 6606,
      "Ġinhabit": 6607,
      "Ġhabitat": 6608,
      "Ġportrayed": 6609,
      "Leod": 6610,
      "30": 6611,
      "ban": 6612,
      "min": 6613,
      "ĠÎ": 6614,
      "Ġcorp": 6615,
      "Ġpy": 6616,
      "Ġpack": 6617,
      "Ġdin": 6618,
      "Ġhits": 6619,
      "ĠAk": 6620,
      "adal": 6621,
      "ĠBert": 6622,
      "ĠBrian": 6623,
      "ĠHell": 6624,
      "ĠRoy": 6625,
      "Ġ1900": 6626,
      "Ġvary": 6627,
      "ardo": 6628,
      "Ġnoting": 6629,
      "Ġoffers": 6630,
      "Ġattributed": 6631,
      "Ġgameplay": 6632,
      "Ġretreat": 6633,
      "Ġsomeone": 6634,
      "Ġquite": 6635,
      "Ġspecifically": 6636,
      "Ġaddress": 6637,
      "Ġ176": 6638,
      "ĠCaribbe": 6639,
      "ĠBefore": 6640,
      "Ġdetail": 6641,
      "Ġcrime": 6642,
      "Ġsolid": 6643,
      "Ġdestroyers": 6644,
      "Ġdiscovery": 6645,
      "Ġrevolution": 6646,
      "Ġindustrial": 6647,
      "Ġembassy": 6648,
      "Ġmeasures": 6649,
      "ĠDepression": 6650,
      "ĠMacLeod": 6651,
      "Ġcredited": 6652,
      "Ġrecovered": 6653,
      "Ġthousands": 6654,
      "Ġinstrument": 6655,
      "ĠSpring": 6656,
      "eenth": 6657,
      "iÄĩ": 6658,
      "mod": 6659,
      "Ġsquad": 6660,
      "Ġworth": 6661,
      "Ġcrown": 6662,
      "ĠTs": 6663,
      "ĠAer": 6664,
      "Ġlov": 6665,
      "Ġgross": 6666,
      "ussion": 6667,
      "ĠHit": 6668,
      "ĠNether": 6669,
      "ĠLenn": 6670,
      "estone": 6671,
      "allow": 6672,
      "Ġplants": 6673,
      "Ġshut": 6674,
      "ĠStew": 6675,
      "ĠChains": 6676,
      "rane": 6677,
      "ĠHeavy": 6678,
      "Ġju": 6679,
      "intend": 6680,
      "Ġwealth": 6681,
      "raltar": 6682,
      "Ġflo": 6683,
      "Ġaccur": 6684,
      "aza": 6685,
      "Ġ1949": 6686,
      "Ġcontinuing": 6687,
      "Ġleads": 6688,
      "Ġcarrying": 6689,
      "Ġoccurs": 6690,
      "Ġ1951": 6691,
      "Ġ1956": 6692,
      "Ġwindow": 6693,
      "ĠAbout": 6694,
      "Ġpatron": 6695,
      "Ġcompetitions": 6696,
      "ĠSimilar": 6697,
      "Ġrecognition": 6698,
      "Ġseparated": 6699,
      "going": 6700,
      "ĠKhÃ¡nh": 6701,
      "Ġdiscussed": 6702,
      "Ġvessels": 6703,
      "Ġyounger": 6704,
      "Ġworst": 6705,
      "unicipal": 6706,
      "lysses": 6707,
      "ĠCaribbean": 6708,
      "Ar": 6709,
      "eper": 6710,
      "hi": 6711,
      "ients": 6712,
      "know": 6713,
      "oh": 6714,
      "tty": 6715,
      "var": 6716,
      "Ġcard": 6717,
      "Ġfranch": 6718,
      "Ġbal": 6719,
      "Ġinner": 6720,
      "Ġpsych": 6721,
      "ĠTam": 6722,
      "ĠTop": 6723,
      "ĠSquare": 6724,
      "Ġlit": 6725,
      "amer": 6726,
      "amber": 6727,
      "ĠMaster": 6728,
      "ĠBeck": 6729,
      "ĠIGN": 6730,
      "ĠHun": 6731,
      "ĠHospital": 6732,
      "ĠRem": 6733,
      "ceived": 6734,
      "ĠLoren": 6735,
      "ĠJersey": 6736,
      "agues": 6737,
      "avia": 6738,
      "Ġshore": 6739,
      "ĠUlysses": 6740,
      "Ġcommitted": 6741,
      "Ġ79": 6742,
      "Ġpool": 6743,
      "Ġflat": 6744,
      "Ġstudied": 6745,
      "Ġdescribing": 6746,
      "Ġapproached": 6747,
      "Ġopponents": 6748,
      "Ġerected": 6749,
      "Ġdifficulty": 6750,
      "Ġpredecess": 6751,
      "iffe": 6752,
      "Ġrules": 6753,
      "Ġveget": 6754,
      "Ġindicate": 6755,
      "ĠSenate": 6756,
      "ĠHoly": 6757,
      "Ġconstitution": 6758,
      "ĠHistoric": 6759,
      "ĠColumbia": 6760,
      "ĠSecretary": 6761,
      "ĠGibraltar": 6762,
      "Ġdismissed": 6763,
      "Ġearthquake": 6764,
      "Ġpenalty": 6765,
      "gram": 6766,
      "ng": 6767,
      "ns": 6768,
      "rations": 6769,
      "va": 6770,
      "ÅĤ": 6771,
      "rec": 6772,
      "Ġfit": 6773,
      "ician": 6774,
      "Ġmicro": 6775,
      "Ġthin": 6776,
      "Ġeighth": 6777,
      "ĠBat": 6778,
      "ivals": 6779,
      "ĠHomer": 6780,
      "ĠPoint": 6781,
      "ĠPagan": 6782,
      "ĠDaily": 6783,
      "ĠOde": 6784,
      "aked": 6785,
      "ĠStory": 6786,
      "ender": 6787,
      "ountain": 6788,
      "Ġaftern": 6789,
      "Ġ67": 6790,
      "Ġ88": 6791,
      "Ġamphib": 6792,
      "Ġaccused": 6793,
      "Ġ1983": 6794,
      "Ġdesignation": 6795,
      "ossible": 6796,
      "inking": 6797,
      "erva": 6798,
      "Ġwinner": 6799,
      "ĠForces": 6800,
      "Ġattempting": 6801,
      "Ġorganizations": 6802,
      "Ġbasin": 6803,
      "Ġbasic": 6804,
      "Ġdemol": 6805,
      "Ġconvoy": 6806,
      "Ġcrosses": 6807,
      "ĠDuke": 6808,
      "Ġhosted": 6809,
      "Ġcreator": 6810,
      "Ġbrothers": 6811,
      "Ġapart": 6812,
      "ĠCampb": 6813,
      "ĠOlympics": 6814,
      "Ġmethods": 6815,
      "Ġpicked": 6816,
      "Ġastron": 6817,
      "Ġrecommended": 6818,
      "Ġrhyth": 6819,
      "ĠBetween": 6820,
      "Ġduties": 6821,
      "Ġceremony": 6822,
      "Ġacademic": 6823,
      "Ġsudden": 6824,
      "gÃ©": 6825,
      "nic": 6826,
      "zz": 6827,
      "orer": 6828,
      "Ġfant": 6829,
      "inger": 6830,
      "Ġhang": 6831,
      "ĠSav": 6832,
      "Ġlic": 6833,
      "aments": 6834,
      "ĠMah": 6835,
      "ĠMemorial": 6836,
      "ĠBi": 6837,
      "othes": 6838,
      "ĠHere": 6839,
      "ĠWy": 6840,
      "aga": 6841,
      "istol": 6842,
      "ĠEdu": 6843,
      "Ġvan": 6844,
      "ĠChan": 6845,
      "Ġunn": 6846,
      "Ġdesire": 6847,
      "Ġmanner": 6848,
      "Ġsecured": 6849,
      "ĠMarl": 6850,
      "oba": 6851,
      "Ġretained": 6852,
      "Ġregime": 6853,
      "ĠShow": 6854,
      "Ġappearing": 6855,
      "Ġcamps": 6856,
      "Ġstarred": 6857,
      "Ġbelieves": 6858,
      "ĠTelevision": 6859,
      "Ġstrongly": 6860,
      "Ġreality": 6861,
      "Ġstatement": 6862,
      "Ġdivisions": 6863,
      "ĠSimps": 6864,
      "Ġcharts": 6865,
      "Ġinterested": 6866,
      "ĠTownship": 6867,
      "Ġmissed": 6868,
      "stitution": 6869,
      "Ġfrig": 6870,
      "ĠMoz": 6871,
      "Ġblocks": 6872,
      "Ġexception": 6873,
      "Ġfavorite": 6874,
      "Ġemerged": 6875,
      "Ġdollars": 6876,
      "Ġchallenge": 6877,
      "Ġbattleships": 6878,
      "Ġleadership": 6879,
      "ĠTennyson": 6880,
      "Ġatmosphere": 6881,
      "Ġisolated": 6882,
      "Ġphilosoph": 6883,
      "Ġextremely": 6884,
      "ĠSimpsons": 6885,
      "cient": 6886,
      "key": 6887,
      "lan": 6888,
      "nell": 6889,
      "ooth": 6890,
      "Ġwedding": 6891,
      "orters": 6892,
      "Ġinland": 6893,
      "ĠCas": 6894,
      "elly": 6895,
      "Ġgal": 6896,
      "igation": 6897,
      "ĠImp": 6898,
      "Ġstones": 6899,
      "aya": 6900,
      "Ġalleg": 6901,
      "Ġconqu": 6902,
      "ĠFame": 6903,
      "ĠJos": 6904,
      "rif": 6905,
      "oca": 6906,
      "ensus": 6907,
      "ĠAli": 6908,
      "ĠAlan": 6909,
      "Ġoutf": 6910,
      "Ġpregn": 6911,
      "ĠAnonymous": 6912,
      "Ġhighlight": 6913,
      "Ġoperating": 6914,
      "Ġprovince": 6915,
      "Ġadvis": 6916,
      "Ġbreaking": 6917,
      "Ġstands": 6918,
      "Ġconvin": 6919,
      "Ġequipped": 6920,
      "Ġholds": 6921,
      "Ġsuperior": 6922,
      "Ġintensified": 6923,
      "Ġaccounts": 6924,
      "Ġtribes": 6925,
      "Ġassistant": 6926,
      "Ġrarely": 6927,
      "Ġprincipal": 6928,
      "Ġironclads": 6929,
      "Ġthirty": 6930,
      "Ġdiameter": 6931,
      "ĠFantasy": 6932,
      "etrarch": 6933,
      "Ġunusual": 6934,
      "Ġparallel": 6935,
      "Ġafternoon": 6936,
      "VN": 6937,
      "cement": 6938,
      "ext": 6939,
      "ois": 6940,
      "pret": 6941,
      "rast": 6942,
      "ses": 6943,
      "zen": 6944,
      "ĪĴ": 6945,
      "inally": 6946,
      "organ": 6947,
      "Ġfal": 6948,
      "Ġfish": 6949,
      "Ġbes": 6950,
      "Ġble": 6951,
      "ĠTetrarch": 6952,
      "ĠCru": 6953,
      "oming": 6954,
      "amic": 6955,
      "uri": 6956,
      "ĠEc": 6957,
      "Ġshif": 6958,
      "Ġshots": 6959,
      "ĠStation": 6960,
      "Ġintention": 6961,
      "Ġoverw": 6962,
      "Ġprey": 6963,
      "Ġteaching": 6964,
      "Ġdefended": 6965,
      "Ġregional": 6966,
      "Ġdoct": 6967,
      "ĠSha": 6968,
      "Ġ1961": 6969,
      "Ġcarved": 6970,
      "Ġpassage": 6971,
      "ĠPlot": 6972,
      "Ġanniversary": 6973,
      "Ġ1910": 6974,
      "Ġreviewer": 6975,
      "ĠBrook": 6976,
      "Ġcovers": 6977,
      "Ġvictims": 6978,
      "Ġcriminal": 6979,
      "ĠMountains": 6980,
      "ĠSimon": 6981,
      "ĠBoise": 6982,
      "Ġnomination": 6983,
      "Ġforests": 6984,
      "ĠCambridge": 6985,
      "ĠEngineer": 6986,
      "iplom": 6987,
      "Ġexpedition": 6988,
      "ĠChelsea": 6989,
      "Ġobtained": 6990,
      "LI": 6991,
      "gie": 6992,
      "ruli": 6993,
      "wise": 6994,
      "yard": 6995,
      "Ġtheatre": 6996,
      "real": 6997,
      "atures": 6998,
      "ori": 6999,
      "anth": 7000,
      "Ġbond": 7001,
      "Ġbaby": 7002,
      "Ġpushed": 7003,
      "Ġpuzz": 7004,
      "Ġdie": 7005,
      "ĠAld": 7006,
      "Ġnob": 7007,
      "acent": 7008,
      "Ġgall": 7009,
      "ĠRun": 7010,
      "ĠRÃ©": 7011,
      "Ġvision": 7012,
      "ateur": 7013,
      "ables": 7014,
      "abled": 7015,
      "earch": 7016,
      "Ġspacing": 7017,
      "oked": 7018,
      "Ġpartly": 7019,
      "ockey": 7020,
      "Ġretire": 7021,
      "Ġsubs": 7022,
      "Ġverse": 7023,
      "Ġentry": 7024,
      "Ġsym": 7025,
      "Ġtransition": 7026,
      "Ġpassengers": 7027,
      "ception": 7028,
      "ĠQedar": 7029,
      "Ġclasses": 7030,
      "ĠBeach": 7031,
      "Ġapproved": 7032,
      "Ġvisible": 7033,
      "Ġmedieval": 7034,
      "attered": 7035,
      "ĠPrime": 7036,
      "istered": 7037,
      "ĠRomani": 7038,
      "Ġwatch": 7039,
      "Ġseeing": 7040,
      "Ġsettle": 7041,
      "ĠHaiti": 7042,
      "Ġimprove": 7043,
      "ĠQueens": 7044,
      "Ġimmediate": 7045,
      "glades": 7046,
      "ĠPatrick": 7047,
      "Ġattracted": 7048,
      "evo": 7049,
      "senal": 7050,
      "ĠGeorgian": 7051,
      "ĠPeninsula": 7052,
      "ĠIndustry": 7053,
      "ĠConstantine": 7054,
      "Ġremnants": 7055,
      "ĠHibari": 7056,
      "achusetts": 7057,
      "ĠFrancisco": 7058,
      "ĠHindu": 7059,
      "body": 7060,
      "fare": 7061,
      "point": 7062,
      "Ġic": 7063,
      "Ġsession": 7064,
      "Ġwick": 7065,
      "Ġfitted": 7066,
      "Ġmart": 7067,
      "lete": 7068,
      "ĠAML": 7069,
      "amar": 7070,
      "ĠIguan": 7071,
      "ĠPerson": 7072,
      "ĠRangers": 7073,
      "ĠDi": 7074,
      "ĠFront": 7075,
      "osure": 7076,
      "ĠGang": 7077,
      "Ġproceed": 7078,
      "anti": 7079,
      "ĠKat": 7080,
      "ĠâĪĴ": 7081,
      "ogether": 7082,
      "Ġreconnaissance": 7083,
      "ultane": 7084,
      "Ġparties": 7085,
      "Ġ99": 7086,
      "Ġdefences": 7087,
      "Ġwhereas": 7088,
      "Ġincome": 7089,
      "Ġindig": 7090,
      "Ġ112": 7091,
      "Ġ1977": 7092,
      "Ã©t": 7093,
      "quez": 7094,
      "ĠOrgan": 7095,
      "Ġtwelve": 7096,
      "Ġelectric": 7097,
      "Ġequal": 7098,
      "Ġadmitted": 7099,
      "ucky": 7100,
      "ĠSingles": 7101,
      "ĠOslo": 7102,
      "Ġhotel": 7103,
      "Ġironclad": 7104,
      "ĠIndependent": 7105,
      "ĠWeekly": 7106,
      "ĠMassachusetts": 7107,
      "ĠModern": 7108,
      "ĠStephen": 7109,
      "ĠFriends": 7110,
      "Ġsurvivors": 7111,
      "FC": 7112,
      "aug": 7113,
      "math": 7114,
      "worth": 7115,
      "Ġsed": 7116,
      "ĠSports": 7117,
      "ĠCape": 7118,
      "amm": 7119,
      "Ġnav": 7120,
      "Ġnone": 7121,
      "Ġgather": 7122,
      "ima": 7123,
      "imal": 7124,
      "ĠPot": 7125,
      "Ġconvers": 7126,
      "ewhat": 7127,
      "ocal": 7128,
      "Ġplain": 7129,
      "ĠKurt": 7130,
      "ĠChronic": 7131,
      "cles": 7132,
      "cliffe": 7133,
      "Ġoffense": 7134,
      "Ġupd": 7135,
      "Ġacknow": 7136,
      "Ġ05": 7137,
      "Ġ06": 7138,
      "Ġpublisher": 7139,
      "Ġdistribution": 7140,
      "Ġreturns": 7141,
      "Ġ1955": 7142,
      "Ġ1937": 7143,
      "aurus": 7144,
      "risis": 7145,
      "Ġdriving": 7146,
      "ĠOrder": 7147,
      "ĠAmb": 7148,
      "Ġcommunities": 7149,
      "iterranean": 7150,
      "ĠAbb": 7151,
      "ĠEliz": 7152,
      "Ġpainted": 7153,
      "Ġpromote": 7154,
      "Ġconnection": 7155,
      "ĠHamilton": 7156,
      "Ġsuffering": 7157,
      "Ġfalling": 7158,
      "scape": 7159,
      "Ġcivilian": 7160,
      "Ġseemed": 7161,
      "Ġwithdrew": 7162,
      "ĠRepublican": 7163,
      "Ġcompletion": 7164,
      "ASA": 7165,
      "Ġfeeling": 7166,
      "ĠHotel": 7167,
      "ĠArchae": 7168,
      "ĠUpon": 7169,
      "Ġrescue": 7170,
      "ĠLiu": 7171,
      "Ġarrested": 7172,
      "Ġutil": 7173,
      "Ġarrangement": 7174,
      "ĠVenus": 7175,
      "ĠMongol": 7176,
      "Ġexpansion": 7177,
      "uropium": 7178,
      "19": 7179,
      "OC": 7180,
      "bur": 7181,
      "dal": 7182,
      "ni": 7183,
      "wa": 7184,
      "onica": 7185,
      "Ġcul": 7186,
      "Ġcart": 7187,
      "Ġcinem": 7188,
      "Ġbrick": 7189,
      "ĠCB": 7190,
      "Ġninth": 7191,
      "urrent": 7192,
      "uses": 7193,
      "ĠHug": 7194,
      "verse": 7195,
      "ĠNar": 7196,
      "ĠLess": 7197,
      "ĠGil": 7198,
      "ĠGully": 7199,
      "ĠEs": 7200,
      "ĠElect": 7201,
      "Ġvac": 7202,
      "Ġvide": 7203,
      "Ġraces": 7204,
      "Ġrugby": 7205,
      "abeth": 7206,
      "ĠKil": 7207,
      "angerous": 7208,
      "Ġpreced": 7209,
      "Ġshear": 7210,
      "Ġcharter": 7211,
      "Ġfollowers": 7212,
      "Ġindicated": 7213,
      "Ġ07": 7214,
      "Ġdepos": 7215,
      "Ġsigning": 7216,
      "Ġcarbon": 7217,
      "Ġwarm": 7218,
      "Ġimplement": 7219,
      "Ġoppos": 7220,
      "Ġlegs": 7221,
      "ĠPerry": 7222,
      "ĠMorrison": 7223,
      "Ġcloser": 7224,
      "ĠMediterranean": 7225,
      "Ġregularly": 7226,
      "Ġframe": 7227,
      "Ġthreatened": 7228,
      "ĠMaeda": 7229,
      "ĠMontana": 7230,
      "ĠEverglades": 7231,
      "ĠSamuel": 7232,
      "ĠJerusal": 7233,
      "Ġdrums": 7234,
      "ĠThroughout": 7235,
      "Ġemotional": 7236,
      "Ġspecimens": 7237,
      "Ġmushroom": 7238,
      "ĠJerusalem": 7239,
      "bles": 7240,
      "Ġske": 7241,
      "Ġwrong": 7242,
      "Ġpup": 7243,
      "ĠTrib": 7244,
      "ĠMain": 7245,
      "urd": 7246,
      "ĠBank": 7247,
      "using": 7248,
      "utt": 7249,
      "Ġhear": 7250,
      "ĠDNA": 7251,
      "rage": 7252,
      "ctions": 7253,
      "ĠLab": 7254,
      "Ġanth": 7255,
      "ĠJun": 7256,
      "ĠJenn": 7257,
      "Ġrum": 7258,
      "Ġorn": 7259,
      "Ġpartners": 7260,
      "Ġimpl": 7261,
      "amps": 7262,
      "Ġassumed": 7263,
      "Ġcoord": 7264,
      "inson": 7265,
      "Ġmonuments": 7266,
      "Ġ123": 7267,
      "Ġnoisy": 7268,
      "ĠAsh": 7269,
      "ĠMaya": 7270,
      "Ġ1954": 7271,
      "Ġpointed": 7272,
      "ĠDeath": 7273,
      "Ġ1938": 7274,
      "ĠPhoen": 7275,
      "Ġ1927": 7276,
      "iveness": 7277,
      "Ġmarks": 7278,
      "Ġcirculation": 7279,
      "Ġcollaps": 7280,
      "Ġtreaty": 7281,
      "ĠTerrit": 7282,
      "Ġscholar": 7283,
      "hews": 7284,
      "Ġcontroversial": 7285,
      "ĠGeorgia": 7286,
      "Ġalternative": 7287,
      "ĠShortly": 7288,
      "Ġeasily": 7289,
      "Ġeggs": 7290,
      "Ġsomewhat": 7291,
      "ĠRolling": 7292,
      "ĠLorenzo": 7293,
      "iary": 7294,
      "jillo": 7295,
      "Ã¸": 7296,
      "Ġtaught": 7297,
      "Ġworship": 7298,
      "oral": 7299,
      "itals": 7300,
      "Ġbay": 7301,
      "Ġmap": 7302,
      "Ġhall": 7303,
      "lease": 7304,
      "ĠTu": 7305,
      "ĠTel": 7306,
      "entional": 7307,
      "ĠSher": 7308,
      "ĠSup": 7309,
      "ĠAy": 7310,
      "ĠChen": 7311,
      "eline": 7312,
      "Ġnick": 7313,
      "oli": 7314,
      "Ġgard": 7315,
      "Ġforcing": 7316,
      "igg": 7317,
      "Ġstead": 7318,
      "Ġstreak": 7319,
      "ĠPan": 7320,
      "ĠPict": 7321,
      "emed": 7322,
      "ĠDisc": 7323,
      "ĠDesc": 7324,
      "ĠDota": 7325,
      "ĠNBC": 7326,
      "ĠNintend": 7327,
      "rapped": 7328,
      "rien": 7329,
      "Ġaged": 7330,
      "Ġenfor": 7331,
      "Ġsoil": 7332,
      "Ġmonarch": 7333,
      "Ġ178": 7334,
      "Ġ1962": 7335,
      "Ġdriven": 7336,
      "Ġdestruction": 7337,
      "Ġdebate": 7338,
      "Ġposted": 7339,
      "Ġinvolving": 7340,
      "ĠAngle": 7341,
      "Ġarmour": 7342,
      "Ġnovels": 7343,
      "Ġstrip": 7344,
      "Ġ1870": 7345,
      "Ġdrawing": 7346,
      "ĠMaryland": 7347,
      "Ġsurrounded": 7348,
      "Ġabsor": 7349,
      "Ġpurchase": 7350,
      "Ġshells": 7351,
      "Ġcamera": 7352,
      "ĠSomali": 7353,
      "Ġinstitutions": 7354,
      "ĠCritical": 7355,
      "ĠFrederick": 7356,
      "Ġromantic": 7357,
      "Ġdocumentary": 7358,
      "Ġfranchise": 7359,
      "ĠNintendo": 7360,
      "cements": 7361,
      "ker": 7362,
      "rich": 7363,
      "rates": 7364,
      "Ġur": 7365,
      "Ġsnow": 7366,
      "Ġocean": 7367,
      "orous": 7368,
      "itated": 7369,
      "Ġcitiz": 7370,
      "Ġfaces": 7371,
      "Ġbed": 7372,
      "Ġbones": 7373,
      "icate": 7374,
      "icide": 7375,
      "Ġdivers": 7376,
      "Ġdream": 7377,
      "Ġdiplom": 7378,
      "Ġhope": 7379,
      "lets": 7380,
      "ĠCE": 7381,
      "ĠMul": 7382,
      "ĠBang": 7383,
      "ĠISB": 7384,
      "ĠHong": 7385,
      "Ġstadium": 7386,
      "ĠNC": 7387,
      "ĠOwen": 7388,
      "Ġvoted": 7389,
      "Ġexisted": 7390,
      "Ġexha": 7391,
      "ĠInc": 7392,
      "range": 7393,
      "Ġjazz": 7394,
      "Ġfled": 7395,
      "ĠLev": 7396,
      "itsune": 7397,
      "Ġdepend": 7398,
      "Ġestate": 7399,
      "Ġinstalled": 7400,
      "Ġconcerts": 7401,
      "Ġstorms": 7402,
      "Ġmedium": 7403,
      "aska": 7404,
      "Ġcatch": 7405,
      "ĠMadonna": 7406,
      "autiful": 7407,
      "Ġsequel": 7408,
      "ĠStarr": 7409,
      "Ġrailway": 7410,
      "Ġterritories": 7411,
      "Ġstayed": 7412,
      "Ġbringing": 7413,
      "Ġbadly": 7414,
      "ĠCastle": 7415,
      "munition": 7416,
      "Ġcandidate": 7417,
      "ĠHornung": 7418,
      "ĠArgentina": 7419,
      "Ġfungus": 7420,
      "Ġsubmarine": 7421,
      "Ġunsuccessful": 7422,
      "Ġrestaurant": 7423,
      "Ġpyram": 7424,
      "ĠMozamb": 7425,
      "bishop": 7426,
      "Ã§": 7427,
      "Ġtie": 7428,
      "rees": 7429,
      "Ġwants": 7430,
      "enburg": 7431,
      "Ġfold": 7432,
      "Ġbat": 7433,
      "Ġpric": 7434,
      "ĠTig": 7435,
      "ĠAR": 7436,
      "ĠCab": 7437,
      "iday": 7438,
      "otic": 7439,
      "ĠPower": 7440,
      "ĠRom": 7441,
      "ĠRio": 7442,
      "ĠDC": 7443,
      "ĠDanny": 7444,
      "ĠFish": 7445,
      "ĠJosh": 7446,
      "iform": 7447,
      "Ġproport": 7448,
      "Ġrecalled": 7449,
      "Ġpartial": 7450,
      "Ġpartially": 7451,
      "ĠAniston": 7452,
      "Ġconsum": 7453,
      "Ġconsult": 7454,
      "Ġ86": 7455,
      "Ġammunition": 7456,
      "Ġ08": 7457,
      "Ġentitled": 7458,
      "Ġpreserved": 7459,
      "Ġextension": 7460,
      "Ġdistributed": 7461,
      "ĠCarter": 7462,
      "Ġ1958": 7463,
      "ĠAdams": 7464,
      "Ġclassic": 7465,
      "ĠFlight": 7466,
      "ĠRecording": 7467,
      "Ġskull": 7468,
      "Ġlimit": 7469,
      "Ġsettled": 7470,
      "Ġaccommod": 7471,
      "Ġreduce": 7472,
      "Ġtraveled": 7473,
      "ĠKorea": 7474,
      "Ġmulti": 7475,
      "Ġconcerned": 7476,
      "Ġlinked": 7477,
      "Ġhoped": 7478,
      "ĠHuman": 7479,
      "claimed": 7480,
      "ĠRhodesian": 7481,
      "Ġmessage": 7482,
      "ĠISBN": 7483,
      "AC": 7484,
      "kh": 7485,
      "ugh": 7486,
      "Ġtone": 7487,
      "Ġsulf": 7488,
      "Ġpage": 7489,
      "ashed": 7490,
      "Ġdock": 7491,
      "ĠTower": 7492,
      "Ġlap": 7493,
      "ĠBranch": 7494,
      "ĠHay": 7495,
      "ĠPatt": 7496,
      "ĠNaval": 7497,
      "ĠNerva": 7498,
      "Ġkings": 7499,
      "ĠâĢĳ": 7500,
      "Ġspin": 7501,
      "apa": 7502,
      "ĠVII": 7503,
      "Ġcontext": 7504,
      "Ġrecre": 7505,
      "Ġrecru": 7506,
      "Ġupgraded": 7507,
      "weet": 7508,
      "ternal": 7509,
      "Ġsongwrit": 7510,
      "Ġrelative": 7511,
      "Ġ127": 7512,
      "ĠUSD": 7513,
      "Ġdesigns": 7514,
      "ĠGermans": 7515,
      "ennis": 7516,
      "Ġbright": 7517,
      "Ġpossession": 7518,
      "Ġcovering": 7519,
      "ĠEddie": 7520,
      "Ġfootage": 7521,
      "ĠHarry": 7522,
      "Ġprogramme": 7523,
      "ĠSimone": 7524,
      "Ġtreated": 7525,
      "offman": 7526,
      "Ġrenew": 7527,
      "Ġengineering": 7528,
      "Ġinjured": 7529,
      "ĠPlayer": 7530,
      "Ġbombard": 7531,
      "Ġproducts": 7532,
      "Ġinvestigation": 7533,
      "ĠBradford": 7534,
      "Ġratings": 7535,
      "ĠTrujillo": 7536,
      "Ġagricultural": 7537,
      "ĠRoger": 7538,
      "Ġresources": 7539,
      "cation": 7540,
      "hu": 7541,
      "Ġels": 7542,
      "Ġtick": 7543,
      "onia": 7544,
      "Ġsell": 7545,
      "itian": 7546,
      "arning": 7547,
      "ĠSa": 7548,
      "Ġloyal": 7549,
      "Ġet": 7550,
      "olt": 7551,
      "Ġgro": 7552,
      "ĠHud": 7553,
      "Ġstreets": 7554,
      "ĠPope": 7555,
      "Ġalle": 7556,
      "Ġansw": 7557,
      "Ġorchest": 7558,
      "Ġplane": 7559,
      "ĠKong": 7560,
      "ĠKansas": 7561,
      "ĠStrand": 7562,
      "ĠThird": 7563,
      "Ġserial": 7564,
      "teenth": 7565,
      "arked": 7566,
      "Ġacts": 7567,
      "Ġreleg": 7568,
      "Ġinterpret": 7569,
      "ajevo": 7570,
      "ĠShak": 7571,
      "rows": 7572,
      "Ġ1959": 7573,
      "Ġ140": 7574,
      "Ġclassical": 7575,
      "ĠBeat": 7576,
      "ĠBeauty": 7577,
      "Ġprotests": 7578,
      "Ġrefers": 7579,
      "ĠMuslim": 7580,
      "Ġreviewers": 7581,
      "Ġengines": 7582,
      "Ġeffectively": 7583,
      "Ġvictories": 7584,
      "Ġmeetings": 7585,
      "Ġidentity": 7586,
      "Ġinspiration": 7587,
      "Ġfunds": 7588,
      "Ġescort": 7589,
      "Ġpersp": 7590,
      "Ġcruiser": 7591,
      "Ġcolonies": 7592,
      "Ġhappy": 7593,
      "Ġloan": 7594,
      "Ġdegrees": 7595,
      "ĠSarajevo": 7596,
      "ĠSomalia": 7597,
      "Ġwearing": 7598,
      "ĠDesign": 7599,
      "Ġapparently": 7600,
      "Ġchemical": 7601,
      "Ġincorporated": 7602,
      "ĠLisa": 7603,
      "Ġoverseas": 7604,
      "Ġresistance": 7605,
      "ĠRoxas": 7606,
      "ĠNetherlands": 7607,
      "Ġelsewhere": 7608,
      "gra": 7609,
      "iy": 7610,
      "iour": 7611,
      "night": 7612,
      "oom": 7613,
      "vention": 7614,
      "wich": 7615,
      "yer": 7616,
      "Ġau": 7617,
      "Ġfine": 7618,
      "Ġblow": 7619,
      "Ġbone": 7620,
      "rose": 7621,
      "ĠAston": 7622,
      "ĠBal": 7623,
      "ĠRain": 7624,
      "union": 7625,
      "ĠFair": 7626,
      "ĠJean": 7627,
      "Ġprohib": 7628,
      "Ġsees": 7629,
      "udes": 7630,
      "Ġchronic": 7631,
      "Ġlearning": 7632,
      "ellite": 7633,
      "ignment": 7634,
      "Ġagree": 7635,
      "enses": 7636,
      "ensis": 7637,
      "inton": 7638,
      "Ġ900": 7639,
      "Ġrelie": 7640,
      "Ġ09": 7641,
      "Ġexposed": 7642,
      "uchi": 7643,
      "Ġbelt": 7644,
      "Ġimpossible": 7645,
      "Ġgenerated": 7646,
      "ĠWho": 7647,
      "Ġmodified": 7648,
      "Ġdetailed": 7649,
      "Ġelabor": 7650,
      "Ġlowest": 7651,
      "Ġequivalent": 7652,
      "Ġchanging": 7653,
      "Ġarmored": 7654,
      "Ġlooked": 7655,
      "ĠRoberts": 7656,
      "ĠFederal": 7657,
      "Ġrelationships": 7658,
      "Ġreveals": 7659,
      "Ġmerch": 7660,
      "Ġabsence": 7661,
      "Ġsatis": 7662,
      "Ġoccasions": 7663,
      "Ġrhythm": 7664,
      "ĠIguanodon": 7665,
      "Ġvideos": 7666,
      "bra": 7667,
      "iÅ": 7668,
      "sch": 7669,
      "wan": 7670,
      "à¤": 7671,
      "Ġsight": 7672,
      "Ġow": 7673,
      "arth": 7674,
      "Ġban": 7675,
      "Ġdens": 7676,
      "ĠTest": 7677,
      "ĠTreat": 7678,
      "Ġrepr": 7679,
      "ĠAround": 7680,
      "Ġlies": 7681,
      "otton": 7682,
      "Ġash": 7683,
      "ĠDur": 7684,
      "chang": 7685,
      "ĠNak": 7686,
      "agi": 7687,
      "agu": 7688,
      "Ġray": 7689,
      "Ġselection": 7690,
      "uda": 7691,
      "Ġexchange": 7692,
      "ĠVice": 7693,
      "ureau": 7694,
      "Ġappropri": 7695,
      "Ġafterwards": 7696,
      "ĠYour": 7697,
      "Ġ165": 7698,
      "Ġminister": 7699,
      "ĠIslam": 7700,
      "ĠBlood": 7701,
      "Ġoffices": 7702,
      "Ġ1935": 7703,
      "Ġrestored": 7704,
      "Ġ1929": 7705,
      "Ġwestward": 7706,
      "ĠEarl": 7707,
      "Ġdivine": 7708,
      "Äģnt": 7709,
      "ĠActivision": 7710,
      "Ġlanguages": 7711,
      "Ġ1860": 7712,
      "Ġburned": 7713,
      "Ġpractices": 7714,
      "Ġtransportation": 7715,
      "Ġstationed": 7716,
      "Ġtribute": 7717,
      "ĠVictorian": 7718,
      "Ġrequested": 7719,
      "Ġchalleng": 7720,
      "Ġmoral": 7721,
      "Ġextreme": 7722,
      "Ġadults": 7723,
      "ĠYankovic": 7724,
      "ĠStanley": 7725,
      "ĠDemocratic": 7726,
      "Ġencouraged": 7727,
      "Ġprotagonist": 7728,
      "ĠIsabella": 7729,
      "Ġcongreg": 7730,
      "Ġinhabitants": 7731,
      "ĠLennon": 7732,
      "Ġopposite": 7733,
      "Ġalleged": 7734,
      "Brien": 7735,
      "bie": 7736,
      "hol": 7737,
      "mit": 7738,
      "rad": 7739,
      "wick": 7740,
      "á»": 7741,
      "ĠÅ": 7742,
      "orial": 7743,
      "Ġcry": 7744,
      "ingale": 7745,
      "Ġpin": 7746,
      "ĠTok": 7747,
      "entures": 7748,
      "ĠSab": 7749,
      "ĠAP": 7750,
      "Ġliber": 7751,
      "ĠCR": 7752,
      "Ġonline": 7753,
      "ĠBad": 7754,
      "ĠPul": 7755,
      "emia": 7756,
      "ĠLanc": 7757,
      "ĠLords": 7758,
      "ifer": 7759,
      "ifna": 7760,
      "ĠKen": 7761,
      "ĠKershaw": 7762,
      "ĠUr": 7763,
      "Ġleuk": 7764,
      "Ġcloth": 7765,
      "Ġmovements": 7766,
      "Ġenters": 7767,
      "annah": 7768,
      "Ġoperate": 7769,
      "Ġ1911": 7770,
      "Ġ1932": 7771,
      "Ġ1921": 7772,
      "ĠStef": 7773,
      "Ġstandards": 7774,
      "Ġdeliber": 7775,
      "Ġsuggesting": 7776,
      "ombat": 7777,
      "Ġ1909": 7778,
      "ĠWithin": 7779,
      "Ġreading": 7780,
      "Ġpraise": 7781,
      "Ġgenre": 7782,
      "Ġmountains": 7783,
      "Ġdifficulties": 7784,
      "ĠÃĹ": 7785,
      "Ġhappened": 7786,
      "Ġemerg": 7787,
      "Ġunderstand": 7788,
      "Ġaccompany": 7789,
      "iques": 7790,
      "Ġvessel": 7791,
      "Ġyoungest": 7792,
      "Ġpanel": 7793,
      "Ġadjacent": 7794,
      "Ġassassination": 7795,
      "ĠRyan": 7796,
      "ĠAthletic": 7797,
      "Ġritual": 7798,
      "put": 7799,
      "vements": 7800,
      "Ġå": 7801,
      "Ġille": 7802,
      "Ġtack": 7803,
      "hered": 7804,
      "reme": 7805,
      "Ġsunk": 7806,
      "Ġsiege": 7807,
      "aled": 7808,
      "Ġhat": 7809,
      "ilation": 7810,
      "ĠCult": 7811,
      "otype": 7812,
      "Ġstable": 7813,
      "Ġheat": 7814,
      "ĠRugby": 7815,
      "ĠDyn": 7816,
      "Ġalien": 7817,
      "Ġrated": 7818,
      "ĠKaw": 7819,
      "aste": 7820,
      "ĠChannel": 7821,
      "Ġconsol": 7822,
      "Ġactual": 7823,
      "Ġenth": 7824,
      "Ġtrail": 7825,
      "Ġexpensive": 7826,
      "ĠIndones": 7827,
      "Ġcrest": 7828,
      "Ġinfrast": 7829,
      "Ġbrig": 7830,
      "Ġannually": 7831,
      "Ġ1912": 7832,
      "encing": 7833,
      "Ġdefeating": 7834,
      "spec": 7835,
      "Ġready": 7836,
      "ĠCalvert": 7837,
      "Ġpredomin": 7838,
      "Ġrepresenting": 7839,
      "avalry": 7840,
      "Ġburial": 7841,
      "ĠWilson": 7842,
      "Ġensure": 7843,
      "Ġvisitors": 7844,
      "ĠResearch": 7845,
      "Ġjudge": 7846,
      "Ġhundreds": 7847,
      "ĠConfeder": 7848,
      "Ġthrone": 7849,
      "Ġpreparation": 7850,
      "Ġcustom": 7851,
      "ĠNorman": 7852,
      "Hg": 7853,
      "rim": 7854,
      "uv": 7855,
      "Ġsam": 7856,
      "Ġsqu": 7857,
      "Ġsessions": 7858,
      "Ġbrand": 7859,
      "Ġpure": 7860,
      "Ġpale": 7861,
      "icit": 7862,
      "leton": 7863,
      "ĠSonic": 7864,
      "elle": 7865,
      "Ġeuropium": 7866,
      "ĠBos": 7867,
      "Ġgone": 7868,
      "terbury": 7869,
      "usad": 7870,
      "ĠNow": 7871,
      "ĠLower": 7872,
      "ĠGun": 7873,
      "ĠGore": 7874,
      "Ġcomments": 7875,
      "Ġvul": 7876,
      "Ġexit": 7877,
      "Ġexcess": 7878,
      "Ġshark": 7879,
      "ĠStock": 7880,
      "apse": 7881,
      "ĠChang": 7882,
      "Ġintense": 7883,
      "Ġresumed": 7884,
      "Ġtele": 7885,
      "Ġraid": 7886,
      "Ġraise": 7887,
      "Ġforming": 7888,
      "Ġwritings": 7889,
      "Ġmuscar": 7890,
      "Ġ122": 7891,
      "Ġpoll": 7892,
      "Ġcarri": 7893,
      "Ġowner": 7894,
      "Ġmusicians": 7895,
      "ĠAdam": 7896,
      "Ġ1931": 7897,
      "ĠProf": 7898,
      "Ġwilling": 7899,
      "espe": 7900,
      "ĠCanterbury": 7901,
      "Ġclaiming": 7902,
      "Ġelse": 7903,
      "itarian": 7904,
      "Ġcycle": 7905,
      "Ġinfluential": 7906,
      "Ġgrounds": 7907,
      "Ġcoup": 7908,
      "Ġinterests": 7909,
      "Ġrebels": 7910,
      "Ġinjuries": 7911,
      "itzer": 7912,
      "Ġmaterials": 7913,
      "ĠRussia": 7914,
      "Ġgrey": 7915,
      "Ġabsol": 7916,
      "ĠVeronica": 7917,
      "Ġnormally": 7918,
      "Ġessential": 7919,
      "Ġpurposes": 7920,
      "Ġdisappoint": 7921,
      "ĠClassic": 7922,
      "Ġmemory": 7923,
      "Ġexecuted": 7924,
      "Ġfixed": 7925,
      "ĠWriting": 7926,
      "Ġchairman": 7927,
      "ĠDestiny": 7928,
      "Ġstere": 7929,
      "ĠGrammy": 7930,
      "ĠElizabeth": 7931,
      "Be": 7932,
      "DS": 7933,
      "aired": 7934,
      "yo": 7935,
      "zac": 7936,
      "Ã±": 7937,
      "Ġib": 7938,
      "Ġoption": 7939,
      "Ġfram": 7940,
      "ĠinHg": 7941,
      "illy": 7942,
      "ĠMack": 7943,
      "ĠBass": 7944,
      "ĠBron": 7945,
      "ira": 7946,
      "otal": 7947,
      "owitz": 7948,
      "ĠPass": 7949,
      "ĠDiv": 7950,
      "ĠDark": 7951,
      "uls": 7952,
      "Ġalter": 7953,
      "rik": 7954,
      "Ġvote": 7955,
      "Ġdeleg": 7956,
      "ĠâĤ": 7957,
      "Ġshipping": 7958,
      "ĠUt": 7959,
      "ĠInit": 7960,
      "Ġspaces": 7961,
      "Ġunion": 7962,
      "Ġherd": 7963,
      "Ġteach": 7964,
      "formation": 7965,
      "Ġsubst": 7966,
      "Ġformally": 7967,
      "Ġsurpr": 7968,
      "ĠAustrian": 7969,
      "ernand": 7970,
      "Ġminimum": 7971,
      "Ġobl": 7972,
      "Ġcarries": 7973,
      "Ġcargo": 7974,
      "Ġairline": 7975,
      "ĠPlunk": 7976,
      "Ġtwin": 7977,
      "Ġwatching": 7978,
      "ĠPoland": 7979,
      "Ġmixture": 7980,
      "ĠKevin": 7981,
      "Ġrecognised": 7982,
      "ĠMexican": 7983,
      "Ġclearly": 7984,
      "Ġobjective": 7985,
      "ĠDonald": 7986,
      "ĠLawrence": 7987,
      "Ġwatershed": 7988,
      "ĠNorway": 7989,
      "Ġturrets": 7990,
      "Ġspecimen": 7991,
      "ĠProtest": 7992,
      "Ġlbw": 7993,
      "Ġbulk": 7994,
      "Ġresidential": 7995,
      "Ġinitiative": 7996,
      "Ġoverwhel": 7997,
      "espeare": 7998,
      "AT": 7999
    },
    "merges": [
      [
        "Ġ",
        "t"
      ],
      [
        "h",
        "e"
      ],
      [
        "Ġ",
        "a"
      ],
      [
        "i",
        "n"
      ],
      [
        "Ġt",
        "he"
      ],
      [
        "e",
        "r"
      ],
      [
        "o",
        "n"
      ],
      [
        "Ġ",
        ","
      ],
      [
        "r",
        "e"
      ],
      [
        "Ġ",
        "s"
      ],
      [
        "e",
        "d"
      ],
      [
        "Ġ",
        "w"
      ],
      [
        "Ġ",
        "o"
      ],
      [
        "n",
        "d"
      ],
      [
        "a",
        "t"
      ],
      [
        "Ġ",
        "."
      ],
      [
        "o",
        "r"
      ],
      [
        "i",
        "t"
      ],
      [
        "Ġ",
        "c"
      ],
      [
        "e",
        "n"
      ],
      [
        "Ġ",
        "f"
      ],
      [
        "e",
        "s"
      ],
      [
        "i",
        "s"
      ],
      [
        "a",
        "r"
      ],
      [
        "Ġo",
        "f"
      ],
      [
        "a",
        "n"
      ],
      [
        "Ġ",
        "b"
      ],
      [
        "Ġ",
        "in"
      ],
      [
        "a",
        "l"
      ],
      [
        "in",
        "g"
      ],
      [
        "Ġ",
        "p"
      ],
      [
        "a",
        "s"
      ],
      [
        "Ġa",
        "nd"
      ],
      [
        "Ġt",
        "o"
      ],
      [
        "r",
        "o"
      ],
      [
        "i",
        "c"
      ],
      [
        "Ġ",
        "m"
      ],
      [
        "Ġ",
        "d"
      ],
      [
        "Ġ",
        "h"
      ],
      [
        "i",
        "on"
      ],
      [
        "o",
        "u"
      ],
      [
        "l",
        "e"
      ],
      [
        "Ġ",
        "T"
      ],
      [
        "Ġ",
        "re"
      ],
      [
        "i",
        "l"
      ],
      [
        "en",
        "t"
      ],
      [
        "Ġ",
        "S"
      ],
      [
        "Ġ",
        "A"
      ],
      [
        "Ġt",
        "h"
      ],
      [
        "Ġ",
        "\""
      ],
      [
        "Ġ",
        "1"
      ],
      [
        "s",
        "t"
      ],
      [
        "Ġ",
        "l"
      ],
      [
        "Ġ",
        "C"
      ],
      [
        "e",
        "l"
      ],
      [
        "o",
        "m"
      ],
      [
        "a",
        "m"
      ],
      [
        "Ġ",
        "e"
      ],
      [
        "Ġ",
        "n"
      ],
      [
        "Ġ",
        "="
      ],
      [
        "Ġ",
        "@"
      ],
      [
        "a",
        "d"
      ],
      [
        "a",
        "c"
      ],
      [
        "Ġw",
        "as"
      ],
      [
        "Ġ",
        "M"
      ],
      [
        "u",
        "r"
      ],
      [
        "e",
        "c"
      ],
      [
        "Ġ",
        "on"
      ],
      [
        "l",
        "y"
      ],
      [
        "Ġ",
        "B"
      ],
      [
        "e",
        "t"
      ],
      [
        "Ġ",
        "'"
      ],
      [
        "o",
        "l"
      ],
      [
        "Ġ",
        "g"
      ],
      [
        "i",
        "d"
      ],
      [
        "i",
        "v"
      ],
      [
        "i",
        "m"
      ],
      [
        "Ġf",
        "or"
      ],
      [
        "i",
        "r"
      ],
      [
        "i",
        "g"
      ],
      [
        "-",
        "@"
      ],
      [
        "Ġ@",
        "-@"
      ],
      [
        "Ġ",
        "I"
      ],
      [
        "ĠT",
        "he"
      ],
      [
        "t",
        "er"
      ],
      [
        "o",
        "t"
      ],
      [
        "Ġa",
        "s"
      ],
      [
        "u",
        "s"
      ],
      [
        "o",
        "w"
      ],
      [
        "Ġ",
        "H"
      ],
      [
        "u",
        "t"
      ],
      [
        "Ġs",
        "t"
      ],
      [
        "a",
        "y"
      ],
      [
        "Ġ",
        "2"
      ],
      [
        "it",
        "h"
      ],
      [
        "at",
        "ion"
      ],
      [
        "v",
        "er"
      ],
      [
        "Ġb",
        "e"
      ],
      [
        "Ġ",
        "P"
      ],
      [
        "Ġw",
        "ith"
      ],
      [
        "Ġ",
        "he"
      ],
      [
        "Ġth",
        "at"
      ],
      [
        "Ġ",
        "R"
      ],
      [
        "e",
        "m"
      ],
      [
        "t",
        "h"
      ],
      [
        "u",
        "n"
      ],
      [
        "c",
        "e"
      ],
      [
        "Ġ",
        "D"
      ],
      [
        "Ġ",
        "is"
      ],
      [
        "u",
        "l"
      ],
      [
        "Ġw",
        "h"
      ],
      [
        "Ġb",
        "y"
      ],
      [
        "c",
        "h"
      ],
      [
        "Ġ",
        ")"
      ],
      [
        "Ġ",
        "("
      ],
      [
        "Ġa",
        "l"
      ],
      [
        "Ġc",
        "on"
      ],
      [
        "Ġ",
        "F"
      ],
      [
        "Ġ",
        "N"
      ],
      [
        "r",
        "a"
      ],
      [
        "Ġa",
        "t"
      ],
      [
        "o",
        "s"
      ],
      [
        "Ġ",
        "W"
      ],
      [
        "er",
        "s"
      ],
      [
        "c",
        "t"
      ],
      [
        "Ġ",
        "L"
      ],
      [
        "Ġ",
        "G"
      ],
      [
        "Ġ1",
        "9"
      ],
      [
        "Ġ",
        "it"
      ],
      [
        "ro",
        "m"
      ],
      [
        "a",
        "nd"
      ],
      [
        "Ġa",
        "n"
      ],
      [
        "he",
        "r"
      ],
      [
        "es",
        "t"
      ],
      [
        "Ġ",
        "J"
      ],
      [
        "u",
        "m"
      ],
      [
        "0",
        "0"
      ],
      [
        "a",
        "g"
      ],
      [
        "is",
        "t"
      ],
      [
        "a",
        "in"
      ],
      [
        "a",
        "v"
      ],
      [
        "r",
        "i"
      ],
      [
        "o",
        "d"
      ],
      [
        "Ġ",
        "E"
      ],
      [
        "Ġf",
        "rom"
      ],
      [
        "Ġc",
        "om"
      ],
      [
        "Ġh",
        "is"
      ],
      [
        "Ġ",
        "O"
      ],
      [
        "o",
        "p"
      ],
      [
        "re",
        "s"
      ],
      [
        "i",
        "f"
      ],
      [
        "er",
        "e"
      ],
      [
        "or",
        "t"
      ],
      [
        "Ġp",
        "ro"
      ],
      [
        "i",
        "es"
      ],
      [
        "Ġ",
        "v"
      ],
      [
        "il",
        "l"
      ],
      [
        "Ġd",
        "e"
      ],
      [
        "p",
        "p"
      ],
      [
        "o",
        "re"
      ],
      [
        "l",
        "d"
      ],
      [
        "Ġ",
        "r"
      ],
      [
        "Ġw",
        "ere"
      ],
      [
        "Ġs",
        "u"
      ],
      [
        "Ġs",
        "e"
      ],
      [
        "on",
        "g"
      ],
      [
        "ig",
        "h"
      ],
      [
        "e",
        "w"
      ],
      [
        "at",
        "e"
      ],
      [
        "al",
        "l"
      ],
      [
        "a",
        "k"
      ],
      [
        "ar",
        "d"
      ],
      [
        "ic",
        "h"
      ],
      [
        "ar",
        "t"
      ],
      [
        "b",
        "er"
      ],
      [
        "an",
        "t"
      ],
      [
        "Ġo",
        "r"
      ],
      [
        "it",
        "y"
      ],
      [
        "u",
        "d"
      ],
      [
        "o",
        "c"
      ],
      [
        "at",
        "ed"
      ],
      [
        "a",
        "b"
      ],
      [
        "Ġc",
        "h"
      ],
      [
        "g",
        "h"
      ],
      [
        "Ġe",
        "x"
      ],
      [
        "q",
        "u"
      ],
      [
        "p",
        "t"
      ],
      [
        "Ġp",
        "l"
      ],
      [
        "Ġ",
        "K"
      ],
      [
        "ro",
        "u"
      ],
      [
        "es",
        "s"
      ],
      [
        "e",
        "ar"
      ],
      [
        "am",
        "e"
      ],
      [
        "iv",
        "e"
      ],
      [
        "ac",
        "k"
      ],
      [
        "Ġ",
        "â"
      ],
      [
        "Ġs",
        "h"
      ],
      [
        "Ġ",
        "U"
      ],
      [
        "Ġ",
        "k"
      ],
      [
        "Ġa",
        "re"
      ],
      [
        "ĠI",
        "n"
      ],
      [
        "ec",
        "t"
      ],
      [
        "Ġh",
        "ad"
      ],
      [
        "Ġâ",
        "Ģ"
      ],
      [
        "i",
        "an"
      ],
      [
        "s",
        "e"
      ],
      [
        "Ġwh",
        "ich"
      ],
      [
        "ĠS",
        "t"
      ],
      [
        "as",
        "t"
      ],
      [
        "re",
        "d"
      ],
      [
        "g",
        "e"
      ],
      [
        "ou",
        "r"
      ],
      [
        "o",
        "v"
      ],
      [
        "i",
        "p"
      ],
      [
        "m",
        "ent"
      ],
      [
        "Ġs",
        "p"
      ],
      [
        "Ġn",
        "ot"
      ],
      [
        "Ġ",
        "y"
      ],
      [
        "Ġ",
        "le"
      ],
      [
        "i",
        "al"
      ],
      [
        "in",
        "e"
      ],
      [
        "r",
        "it"
      ],
      [
        "o",
        "st"
      ],
      [
        "a",
        "p"
      ],
      [
        "u",
        "st"
      ],
      [
        "igh",
        "t"
      ],
      [
        "el",
        "l"
      ],
      [
        "or",
        "d"
      ],
      [
        "Ġ",
        "u"
      ],
      [
        "ou",
        "n"
      ],
      [
        "i",
        "a"
      ],
      [
        "ic",
        "al"
      ],
      [
        "ĠC",
        "h"
      ],
      [
        "Ġ",
        "3"
      ],
      [
        "t",
        "her"
      ],
      [
        "is",
        "h"
      ],
      [
        "ar",
        "y"
      ],
      [
        "av",
        "e"
      ],
      [
        "o",
        "g"
      ],
      [
        "Ġ",
        "un"
      ],
      [
        "c",
        "l"
      ],
      [
        "Ġ2",
        "00"
      ],
      [
        "ir",
        "st"
      ],
      [
        "ou",
        "s"
      ],
      [
        "ion",
        "s"
      ],
      [
        "Ġ",
        ";"
      ],
      [
        "Ġa",
        "r"
      ],
      [
        "Ġin",
        "t"
      ],
      [
        "r",
        "u"
      ],
      [
        "id",
        "e"
      ],
      [
        "Ġ",
        "V"
      ],
      [
        "s",
        "o"
      ],
      [
        "Ġcom",
        "p"
      ],
      [
        "f",
        "ter"
      ],
      [
        "Ġb",
        "ut"
      ],
      [
        "Ġthe",
        "ir"
      ],
      [
        "Ġcon",
        "t"
      ],
      [
        "c",
        "c"
      ],
      [
        "u",
        "re"
      ],
      [
        "ou",
        "t"
      ],
      [
        "ou",
        "ld"
      ],
      [
        "Ġit",
        "s"
      ],
      [
        "Ġw",
        "he"
      ],
      [
        "Ġf",
        "irst"
      ],
      [
        "w",
        "o"
      ],
      [
        "Ġ2",
        "0"
      ],
      [
        "p",
        "er"
      ],
      [
        "f",
        "f"
      ],
      [
        "he",
        "d"
      ],
      [
        "ĠâĢ",
        "ĵ"
      ],
      [
        "ow",
        "n"
      ],
      [
        "as",
        "s"
      ],
      [
        "ig",
        "n"
      ],
      [
        "Ġal",
        "so"
      ],
      [
        "u",
        "e"
      ],
      [
        "r",
        "y"
      ],
      [
        "or",
        "m"
      ],
      [
        "Ġc",
        "l"
      ],
      [
        "o",
        "k"
      ],
      [
        "u",
        "b"
      ],
      [
        "i",
        "e"
      ],
      [
        "at",
        "er"
      ],
      [
        "r",
        "an"
      ],
      [
        "e",
        "nd"
      ],
      [
        "om",
        "e"
      ],
      [
        "Ġre",
        "s"
      ],
      [
        "i",
        "re"
      ],
      [
        "Ġ",
        ":"
      ],
      [
        "on",
        "d"
      ],
      [
        "or",
        "k"
      ],
      [
        "T",
        "he"
      ],
      [
        "Ġa",
        "d"
      ],
      [
        "Ġa",
        "b"
      ],
      [
        "ĠH",
        "e"
      ],
      [
        "m",
        "er"
      ],
      [
        "Ġ",
        "us"
      ],
      [
        "ag",
        "e"
      ],
      [
        "Ġhe",
        "r"
      ],
      [
        "Ġ",
        "ro"
      ],
      [
        "Ġ",
        "4"
      ],
      [
        "Ġh",
        "ave"
      ],
      [
        "Ġ",
        "5"
      ],
      [
        "l",
        "ow"
      ],
      [
        "Ġon",
        "e"
      ],
      [
        "Ġp",
        "er"
      ],
      [
        "Ġre",
        "c"
      ],
      [
        "Ġbe",
        "en"
      ],
      [
        "Ġh",
        "as"
      ],
      [
        "Ġt",
        "wo"
      ],
      [
        ".",
        "@"
      ],
      [
        "Ġ@",
        ".@"
      ],
      [
        "im",
        "e"
      ],
      [
        "re",
        "e"
      ],
      [
        "ur",
        "ing"
      ],
      [
        "d",
        "u"
      ],
      [
        "al",
        "ly"
      ],
      [
        "en",
        "ce"
      ],
      [
        "p",
        "l"
      ],
      [
        "Ġ1",
        "8"
      ],
      [
        "i",
        "le"
      ],
      [
        "ul",
        "t"
      ],
      [
        "Ġs",
        "c"
      ],
      [
        "l",
        "and"
      ],
      [
        "ou",
        "gh"
      ],
      [
        "it",
        "ion"
      ],
      [
        "i",
        "z"
      ],
      [
        "Ġa",
        "g"
      ],
      [
        "Ġwh",
        "o"
      ],
      [
        "Ġth",
        "is"
      ],
      [
        "ĠT",
        "h"
      ],
      [
        "ac",
        "h"
      ],
      [
        "ation",
        "s"
      ],
      [
        "Ġd",
        "is"
      ],
      [
        "r",
        "ic"
      ],
      [
        "Ġb",
        "ec"
      ],
      [
        "Ġa",
        "pp"
      ],
      [
        "Ġ",
        "j"
      ],
      [
        "Ġp",
        "art"
      ],
      [
        "oun",
        "t"
      ],
      [
        "a",
        "re"
      ],
      [
        "Ġd",
        "es"
      ],
      [
        "cl",
        "ud"
      ],
      [
        "ac",
        "t"
      ],
      [
        "el",
        "y"
      ],
      [
        "ad",
        "e"
      ],
      [
        "ĠI",
        "t"
      ],
      [
        "or",
        "y"
      ],
      [
        "Ġthe",
        "y"
      ],
      [
        "Ġo",
        "ver"
      ],
      [
        "Ġ20",
        "1"
      ],
      [
        "Ġpl",
        "ay"
      ],
      [
        "o",
        "ver"
      ],
      [
        "i",
        "b"
      ],
      [
        "Ġm",
        "an"
      ],
      [
        "ou",
        "nd"
      ],
      [
        "Ġa",
        "fter"
      ],
      [
        "Ġy",
        "ear"
      ],
      [
        "en",
        "s"
      ],
      [
        ",",
        "@"
      ],
      [
        "Ġ@",
        ",@"
      ],
      [
        "i",
        "k"
      ],
      [
        "Ġof",
        "f"
      ],
      [
        "Ġs",
        "er"
      ],
      [
        "ĠA",
        "l"
      ],
      [
        "Ġat",
        "t"
      ],
      [
        "Ġ",
        "im"
      ],
      [
        "ct",
        "ion"
      ],
      [
        "Ġo",
        "ther"
      ],
      [
        "ur",
        "n"
      ],
      [
        "p",
        "h"
      ],
      [
        "em",
        "ber"
      ],
      [
        "Ġ",
        "Y"
      ],
      [
        "ac",
        "e"
      ],
      [
        "an",
        "ce"
      ],
      [
        "Ġin",
        "clud"
      ],
      [
        "t",
        "e"
      ],
      [
        "res",
        "s"
      ],
      [
        "it",
        "e"
      ],
      [
        "Ġo",
        "ut"
      ],
      [
        "ic",
        "e"
      ],
      [
        "Ġ",
        "en"
      ],
      [
        "ar",
        "k"
      ],
      [
        "an",
        "g"
      ],
      [
        "m",
        "an"
      ],
      [
        "e",
        "y"
      ],
      [
        "rou",
        "nd"
      ],
      [
        "w",
        "n"
      ],
      [
        "Ġint",
        "o"
      ],
      [
        "rou",
        "gh"
      ],
      [
        "Ġu",
        "p"
      ],
      [
        "Ġp",
        "re"
      ],
      [
        "nd",
        "er"
      ],
      [
        "Ġe",
        "v"
      ],
      [
        "re",
        "n"
      ],
      [
        "Ġt",
        "ime"
      ],
      [
        "in",
        "t"
      ],
      [
        "w",
        "e"
      ],
      [
        "c",
        "ed"
      ],
      [
        "p",
        "ort"
      ],
      [
        "Ġcom",
        "m"
      ],
      [
        "Ġ",
        "6"
      ],
      [
        "w",
        "ard"
      ],
      [
        "in",
        "d"
      ],
      [
        "c",
        "es"
      ],
      [
        "am",
        "p"
      ],
      [
        "Ġt",
        "e"
      ],
      [
        "i",
        "ed"
      ],
      [
        "Ġw",
        "ould"
      ],
      [
        "v",
        "el"
      ],
      [
        "os",
        "e"
      ],
      [
        "Ġw",
        "e"
      ],
      [
        "Ġm",
        "ore"
      ],
      [
        "ĠU",
        "n"
      ],
      [
        "ter",
        "n"
      ],
      [
        "it",
        "ed"
      ],
      [
        "Ġ",
        "7"
      ],
      [
        "Ġal",
        "l"
      ],
      [
        "ent",
        "s"
      ],
      [
        "l",
        "es"
      ],
      [
        "Ġh",
        "im"
      ],
      [
        "as",
        "on"
      ],
      [
        "Ġn",
        "e"
      ],
      [
        "ab",
        "le"
      ],
      [
        "is",
        "s"
      ],
      [
        "ri",
        "b"
      ],
      [
        "or",
        "s"
      ],
      [
        "ing",
        "s"
      ],
      [
        "o",
        "y"
      ],
      [
        "as",
        "ed"
      ],
      [
        "Ġs",
        "he"
      ],
      [
        "a",
        "w"
      ],
      [
        "at",
        "es"
      ],
      [
        "ro",
        "p"
      ],
      [
        "o",
        "od"
      ],
      [
        "at",
        "t"
      ],
      [
        "Ġc",
        "ent"
      ],
      [
        "as",
        "e"
      ],
      [
        "on",
        "e"
      ],
      [
        "Ġw",
        "ork"
      ],
      [
        "Ġp",
        "o"
      ],
      [
        "ĠA",
        "n"
      ],
      [
        "r",
        "al"
      ],
      [
        "i",
        "ous"
      ],
      [
        "ol",
        "d"
      ],
      [
        "or",
        "th"
      ],
      [
        "i",
        "x"
      ],
      [
        "ic",
        "t"
      ],
      [
        "g",
        "an"
      ],
      [
        "Ġ",
        "9"
      ],
      [
        "il",
        "d"
      ],
      [
        "Ġre",
        "m"
      ],
      [
        "in",
        "al"
      ],
      [
        "Ġs",
        "ec"
      ],
      [
        "a",
        "il"
      ],
      [
        "e",
        "p"
      ],
      [
        "Ġf",
        "e"
      ],
      [
        "f",
        "orm"
      ],
      [
        "Ġe",
        "ar"
      ],
      [
        "Ġd",
        "uring"
      ],
      [
        "at",
        "h"
      ],
      [
        "Ġb",
        "et"
      ],
      [
        "Ġthe",
        "m"
      ],
      [
        "er",
        "ed"
      ],
      [
        "Ġwhe",
        "n"
      ],
      [
        "Ġcon",
        "s"
      ],
      [
        "il",
        "m"
      ],
      [
        "Ġ",
        "8"
      ],
      [
        "ou",
        "th"
      ],
      [
        "v",
        "ed"
      ],
      [
        "r",
        "on"
      ],
      [
        "Ġk",
        "n"
      ],
      [
        "a",
        "us"
      ],
      [
        "s",
        "s"
      ],
      [
        "f",
        "er"
      ],
      [
        "Ġm",
        "ost"
      ],
      [
        "ub",
        "l"
      ],
      [
        "Ġd",
        "ec"
      ],
      [
        "f",
        "t"
      ],
      [
        "ic",
        "k"
      ],
      [
        "Ġon",
        "ly"
      ],
      [
        "Ġs",
        "ong"
      ],
      [
        "w",
        "ay"
      ],
      [
        "Ġag",
        "ain"
      ],
      [
        "ak",
        "e"
      ],
      [
        "ol",
        "low"
      ],
      [
        "Ġn",
        "ew"
      ],
      [
        "ĠO",
        "n"
      ],
      [
        "u",
        "g"
      ],
      [
        "ter",
        "s"
      ],
      [
        "ot",
        "h"
      ],
      [
        "ĠM",
        "ar"
      ],
      [
        "re",
        "at"
      ],
      [
        "we",
        "en"
      ],
      [
        "ation",
        "al"
      ],
      [
        "Ġ19",
        "9"
      ],
      [
        "on",
        "s"
      ],
      [
        "ĠS",
        "e"
      ],
      [
        "h",
        "ip"
      ],
      [
        "Ġth",
        "ree"
      ],
      [
        "ĠC",
        "om"
      ],
      [
        "Ġt",
        "r"
      ],
      [
        "Ġu",
        "nder"
      ],
      [
        "Ġg",
        "ame"
      ],
      [
        "o",
        "ok"
      ],
      [
        "is",
        "ion"
      ],
      [
        "ĠA",
        "r"
      ],
      [
        "Ġab",
        "out"
      ],
      [
        "oc",
        "k"
      ],
      [
        "Ġf",
        "l"
      ],
      [
        "Ġre",
        "l"
      ],
      [
        "o",
        "b"
      ],
      [
        "ol",
        "og"
      ],
      [
        "Ġc",
        "ol"
      ],
      [
        "Ġ",
        "00"
      ],
      [
        "al",
        "s"
      ],
      [
        "Ġth",
        "an"
      ],
      [
        "Ġse",
        "ason"
      ],
      [
        "Ġp",
        "os"
      ],
      [
        "Ġbet",
        "ween"
      ],
      [
        "v",
        "e"
      ],
      [
        "Ġf",
        "ilm"
      ],
      [
        "Ġth",
        "rough"
      ],
      [
        "mer",
        "ic"
      ],
      [
        "f",
        "ore"
      ],
      [
        "Ġe",
        "nd"
      ],
      [
        "Ġc",
        "an"
      ],
      [
        "Ġm",
        "e"
      ],
      [
        "Ġn",
        "um"
      ],
      [
        "ĠA",
        "meric"
      ],
      [
        "or",
        "n"
      ],
      [
        "i",
        "ew"
      ],
      [
        "Ġl",
        "ater"
      ],
      [
        "Ġde",
        "f"
      ],
      [
        "Ġre",
        "t"
      ],
      [
        "Ġas",
        "s"
      ],
      [
        "t",
        "ed"
      ],
      [
        "Ġwh",
        "ile"
      ],
      [
        "ul",
        "ar"
      ],
      [
        "an",
        "s"
      ],
      [
        "Ġch",
        "ar"
      ],
      [
        "ĠN",
        "ew"
      ],
      [
        "Ġa",
        "ct"
      ],
      [
        "ĠE",
        "n"
      ],
      [
        "Ġsu",
        "b"
      ],
      [
        "h",
        "n"
      ],
      [
        "Ġ",
        "ver"
      ],
      [
        "t",
        "s"
      ],
      [
        "Ġrec",
        "ord"
      ],
      [
        "e",
        "ver"
      ],
      [
        "Ġpro",
        "du"
      ],
      [
        "Ġ",
        "ra"
      ],
      [
        "Ġp",
        "e"
      ],
      [
        "Ġp",
        "r"
      ],
      [
        "Ġre",
        "g"
      ],
      [
        "Ġwhe",
        "re"
      ],
      [
        "Ġm",
        "ade"
      ],
      [
        "am",
        "es"
      ],
      [
        "or",
        "ld"
      ],
      [
        "Ġfor",
        "m"
      ],
      [
        "at",
        "ing"
      ],
      [
        "Ġb",
        "u"
      ],
      [
        "Ġa",
        "c"
      ],
      [
        "Ġl",
        "ar"
      ],
      [
        "Ġm",
        "ov"
      ],
      [
        "Ġre",
        "le"
      ],
      [
        "Ġin",
        "ter"
      ],
      [
        "en",
        "er"
      ],
      [
        "ur",
        "y"
      ],
      [
        "is",
        "hed"
      ],
      [
        "in",
        "es"
      ],
      [
        "Ġs",
        "ome"
      ],
      [
        "I",
        "n"
      ],
      [
        "Ġf",
        "ollow"
      ],
      [
        "Ġs",
        "o"
      ],
      [
        "Ġw",
        "rit"
      ],
      [
        "Ġ",
        "qu"
      ],
      [
        "Ġc",
        "o"
      ],
      [
        "Ġd",
        "ay"
      ],
      [
        "Ġsp",
        "ec"
      ],
      [
        "Ġin",
        "c"
      ],
      [
        "Ġf",
        "our"
      ],
      [
        "Ġa",
        "m"
      ],
      [
        "iv",
        "ed"
      ],
      [
        "u",
        "al"
      ],
      [
        "Ġsec",
        "ond"
      ],
      [
        "Ġa",
        "cc"
      ],
      [
        "he",
        "s"
      ],
      [
        "ĠL",
        "e"
      ],
      [
        "Ġ00",
        "0"
      ],
      [
        "l",
        "l"
      ],
      [
        "Ġus",
        "ed"
      ],
      [
        "in",
        "s"
      ],
      [
        "le",
        "ct"
      ],
      [
        "Ġin",
        "d"
      ],
      [
        "n",
        "ing"
      ],
      [
        "ik",
        "e"
      ],
      [
        "Ġbe",
        "fore"
      ],
      [
        "an",
        "k"
      ],
      [
        "b",
        "um"
      ],
      [
        "a",
        "id"
      ],
      [
        "i",
        "el"
      ],
      [
        "Ġsu",
        "pp"
      ],
      [
        "if",
        "ic"
      ],
      [
        "Ġsu",
        "ch"
      ],
      [
        "Ġm",
        "on"
      ],
      [
        "ran",
        "s"
      ],
      [
        "Ġm",
        "us"
      ],
      [
        "Ġ",
        "0"
      ],
      [
        "ic",
        "s"
      ],
      [
        "ĠR",
        "e"
      ],
      [
        "il",
        "y"
      ],
      [
        "Ġ1",
        "0"
      ],
      [
        "he",
        "n"
      ],
      [
        "Ġ1",
        "2"
      ],
      [
        "Ġh",
        "igh"
      ],
      [
        "iv",
        "er"
      ],
      [
        "Ġc",
        "all"
      ],
      [
        "Ġbe",
        "ing"
      ],
      [
[...]
